const unsigned char model[] = {
  0x1c, 0x00, 0x00, 0x00, 0x54, 0x46, 0x4c, 0x33, 0x14, 0x00, 0x20, 0x00,
  0x1c, 0x00, 0x18, 0x00, 0x14, 0x00, 0x10, 0x00, 0x0c, 0x00, 0x00, 0x00,
  0x08, 0x00, 0x04, 0x00, 0x14, 0x00, 0x00, 0x00, 0x1c, 0x00, 0x00, 0x00,
  0x98, 0x00, 0x00, 0x00, 0xf0, 0x00, 0x00, 0x00, 0xdc, 0x27, 0x00, 0x00,
  0xec, 0x27, 0x00, 0x00, 0x30, 0x2d, 0x00, 0x00, 0x03, 0x00, 0x00, 0x00,
  0x01, 0x00, 0x00, 0x00, 0x10, 0x00, 0x00, 0x00, 0x00, 0x00, 0x0a, 0x00,
  0x10, 0x00, 0x0c, 0x00, 0x08, 0x00, 0x04, 0x00, 0x0a, 0x00, 0x00, 0x00,
  0x0c, 0x00, 0x00, 0x00, 0x1c, 0x00, 0x00, 0x00, 0x3c, 0x00, 0x00, 0x00,
  0x0f, 0x00, 0x00, 0x00, 0x73, 0x65, 0x72, 0x76, 0x69, 0x6e, 0x67, 0x5f,
  0x64, 0x65, 0x66, 0x61, 0x75, 0x6c, 0x74, 0x00, 0x01, 0x00, 0x00, 0x00,
  0x04, 0x00, 0x00, 0x00, 0x90, 0xff, 0xff, 0xff, 0x0a, 0x00, 0x00, 0x00,
  0x04, 0x00, 0x00, 0x00, 0x08, 0x00, 0x00, 0x00, 0x6f, 0x75, 0x74, 0x70,
  0x75, 0x74, 0x5f, 0x30, 0x00, 0x00, 0x00, 0x00, 0x01, 0x00, 0x00, 0x00,
  0x04, 0x00, 0x00, 0x00, 0x0a, 0xd8, 0xff, 0xff, 0x04, 0x00, 0x00, 0x00,
  0x0c, 0x00, 0x00, 0x00, 0x6b, 0x65, 0x72, 0x61, 0x73, 0x5f, 0x74, 0x65,
  0x6e, 0x73, 0x6f, 0x72, 0x00, 0x00, 0x00, 0x00, 0x02, 0x00, 0x00, 0x00,
  0x34, 0x00, 0x00, 0x00, 0x04, 0x00, 0x00, 0x00, 0xdc, 0xff, 0xff, 0xff,
  0x0d, 0x00, 0x00, 0x00, 0x04, 0x00, 0x00, 0x00, 0x13, 0x00, 0x00, 0x00,
  0x43, 0x4f, 0x4e, 0x56, 0x45, 0x52, 0x53, 0x49, 0x4f, 0x4e, 0x5f, 0x4d,
  0x45, 0x54, 0x41, 0x44, 0x41, 0x54, 0x41, 0x00, 0x08, 0x00, 0x0c, 0x00,
  0x08, 0x00, 0x04, 0x00, 0x08, 0x00, 0x00, 0x00, 0x0c, 0x00, 0x00, 0x00,
  0x04, 0x00, 0x00, 0x00, 0x13, 0x00, 0x00, 0x00, 0x6d, 0x69, 0x6e, 0x5f,
  0x72, 0x75, 0x6e, 0x74, 0x69, 0x6d, 0x65, 0x5f, 0x76, 0x65, 0x72, 0x73,
  0x69, 0x6f, 0x6e, 0x00, 0x0e, 0x00, 0x00, 0x00, 0xe8, 0x26, 0x00, 0x00,
  0xe0, 0x26, 0x00, 0x00, 0xbc, 0x26, 0x00, 0x00, 0x9c, 0x26, 0x00, 0x00,
  0x78, 0x26, 0x00, 0x00, 0x64, 0x26, 0x00, 0x00, 0x44, 0x26, 0x00, 0x00,
  0xb4, 0x00, 0x00, 0x00, 0xac, 0x00, 0x00, 0x00, 0xa4, 0x00, 0x00, 0x00,
  0x9c, 0x00, 0x00, 0x00, 0x94, 0x00, 0x00, 0x00, 0x74, 0x00, 0x00, 0x00,
  0x04, 0x00, 0x00, 0x00, 0xbe, 0xd8, 0xff, 0xff, 0x04, 0x00, 0x00, 0x00,
  0x60, 0x00, 0x00, 0x00, 0x10, 0x00, 0x00, 0x00, 0x00, 0x00, 0x00, 0x00,
  0x08, 0x00, 0x0e, 0x00, 0x08, 0x00, 0x04, 0x00, 0x08, 0x00, 0x00, 0x00,
  0x10, 0x00, 0x00, 0x00, 0x24, 0x00, 0x00, 0x00, 0x00, 0x00, 0x06, 0x00,
  0x08, 0x00, 0x04, 0x00, 0x06, 0x00, 0x00, 0x00, 0x04, 0x00, 0x00, 0x00,
  0x00, 0x00, 0x00, 0x00, 0x0c, 0x00, 0x18, 0x00, 0x14, 0x00, 0x10, 0x00,
  0x0c, 0x00, 0x04, 0x00, 0x0c, 0x00, 0x00, 0x00, 0x38, 0x22, 0x98, 0xe4,
  0xa5, 0x10, 0x51, 0xd5, 0x02, 0x00, 0x00, 0x00, 0x02, 0x00, 0x00, 0x00,
  0x04, 0x00, 0x00, 0x00, 0x06, 0x00, 0x00, 0x00, 0x32, 0x2e, 0x31, 0x38,
  0x2e, 0x30, 0x00, 0x00, 0x2a, 0xd9, 0xff, 0xff, 0x04, 0x00, 0x00, 0x00,
  0x10, 0x00, 0x00, 0x00, 0x31, 0x2e, 0x35, 0x2e, 0x30, 0x00, 0x00, 0x00,
  0x00, 0x00, 0x00, 0x00, 0x00, 0x00, 0x00, 0x00, 0xb0, 0xd4, 0xff, 0xff,
  0xb4, 0xd4, 0xff, 0xff, 0xb8, 0xd4, 0xff, 0xff, 0xbc, 0xd4, 0xff, 0xff,
  0x56, 0xd9, 0xff, 0xff, 0x04, 0x00, 0x00, 0x00, 0x80, 0x25, 0x00, 0x00,
  0xea, 0x51, 0x0d, 0xbd, 0x2b, 0x4e, 0x49, 0x3d, 0xf0, 0x24, 0x8e, 0x3b,
  0x57, 0x2a, 0x31, 0x3c, 0xbd, 0xc7, 0x53, 0x3d, 0xb5, 0xcc, 0x72, 0x3d,
  0x82, 0x9d, 0xaf, 0x3d, 0xd8, 0x77, 0xc6, 0x3d, 0x48, 0x1a, 0x9d, 0x3c,
  0xe9, 0xdd, 0xcd, 0x3d, 0x83, 0x94, 0x8d, 0xbd, 0xc8, 0x93, 0xb9, 0x3d,
  0x66, 0x1f, 0xc5, 0x3a, 0x5d, 0x46, 0x9e, 0xbd, 0x34, 0x8e, 0x05, 0x3d,
  0xa4, 0xf4, 0xd1, 0xbc, 0xff, 0x8a, 0x5c, 0x3d, 0xe2, 0x29, 0x67, 0x3b,
  0xd5, 0xce, 0x6f, 0x3c, 0x49, 0xbb, 0x9b, 0xbc, 0x1a, 0xc3, 0x5d, 0xbd,
  0x99, 0xcc, 0xf6, 0x3c, 0x56, 0xcf, 0x61, 0x3d, 0x2b, 0x53, 0xb2, 0x3d,
  0xe0, 0x3e, 0x9f, 0x3d, 0xb8, 0xc9, 0x67, 0xbd, 0x63, 0x3b, 0xb0, 0xbc,
  0xa7, 0x3c, 0x9f, 0x3c, 0x0d, 0x59, 0x47, 0x3d, 0x91, 0x6e, 0xbf, 0xbd,
  0x58, 0xa7, 0x24, 0xbc, 0xf8, 0xad, 0x47, 0x3d, 0x09, 0x07, 0x97, 0x3d,
  0xfb, 0x9e, 0x41, 0x3d, 0xcf, 0x82, 0xab, 0x3c, 0x2d, 0x6c, 0xb6, 0x3c,
  0xcf, 0x00, 0x3d, 0xbd, 0x3c, 0x80, 0x80, 0x3c, 0xeb, 0xd7, 0xbc, 0x3d,
  0x86, 0x67, 0x50, 0x3d, 0xad, 0xbc, 0x0d, 0xbd, 0x85, 0x38, 0x20, 0xbd,
  0x3e, 0x02, 0xb1, 0xbd, 0x38, 0xa9, 0x84, 0x3d, 0xd1, 0xec, 0xc6, 0x3c,
  0xd2, 0xbb, 0x50, 0x3d, 0x68, 0x9a, 0xbf, 0x3d, 0x84, 0x2f, 0xa7, 0xbd,
  0xe3, 0x86, 0x63, 0xbd, 0x7e, 0x56, 0x85, 0xbd, 0xda, 0x83, 0x31, 0x3c,
  0x8a, 0x3f, 0xb4, 0xbc, 0x76, 0x9c, 0xb5, 0xbc, 0x90, 0x70, 0x52, 0xbd,
  0xc6, 0xdd, 0x7c, 0xbd, 0xc6, 0x05, 0x05, 0x3d, 0x40, 0x9e, 0xc3, 0x3d,
  0x05, 0x80, 0x95, 0x3d, 0xd4, 0xa3, 0x9e, 0x3c, 0x7e, 0x17, 0x61, 0x3d,
  0x61, 0xbd, 0x43, 0xbd, 0x04, 0xc4, 0x17, 0x3d, 0x2e, 0xbc, 0xdc, 0x3b,
  0x2b, 0x05, 0xc9, 0x3d, 0xa8, 0x80, 0xad, 0xba, 0x71, 0xad, 0xaa, 0x3d,
  0xb9, 0x8b, 0x92, 0xbd, 0xde, 0xc1, 0x91, 0x3b, 0xea, 0xfa, 0x9c, 0xbd,
  0xa6, 0xe9, 0xe0, 0xbc, 0xde, 0x9a, 0x80, 0x3d, 0x75, 0x7f, 0xc0, 0xbd,
  0x2a, 0xae, 0x90, 0xbc, 0x9f, 0xb6, 0xbf, 0x3c, 0x30, 0x3b, 0xe7, 0xbc,
  0xfb, 0x01, 0x41, 0xbc, 0x57, 0x00, 0xeb, 0x3c, 0xcb, 0xa6, 0x84, 0x3d,
  0xa7, 0x06, 0xa5, 0x3c, 0x50, 0xc9, 0x39, 0x3d, 0xd4, 0xe3, 0x9c, 0xbc,
  0xca, 0xc0, 0xf8, 0xbb, 0xb0, 0xec, 0xca, 0x3c, 0x08, 0xb0, 0x5c, 0x3c,
  0x94, 0xfb, 0x9e, 0x3d, 0x21, 0x45, 0x64, 0x3c, 0x62, 0x68, 0xbc, 0xba,
  0xb4, 0xec, 0xce, 0xbb, 0x26, 0x49, 0x99, 0xbc, 0xdc, 0x8d, 0xd5, 0x3c,
  0xea, 0x2f, 0x8f, 0x3d, 0x9a, 0x58, 0xf0, 0xbc, 0xdc, 0x71, 0x93, 0xbd,
  0xe1, 0x4b, 0x9a, 0x3d, 0x38, 0xbd, 0x9d, 0x3b, 0xec, 0x44, 0x55, 0xbd,
  0x05, 0x95, 0x9c, 0x3d, 0xe7, 0xae, 0xbc, 0xbd, 0xfc, 0x98, 0xb3, 0x3d,
  0x12, 0x62, 0x18, 0x3d, 0xe6, 0xa1, 0xc3, 0x3d, 0x10, 0xad, 0xaa, 0x3d,
  0xbf, 0x7a, 0x74, 0xbd, 0xf8, 0x39, 0xd3, 0xbc, 0xe9, 0x23, 0x68, 0xbd,
  0x4d, 0x9d, 0x25, 0xbd, 0x0f, 0x84, 0x99, 0x3d, 0xff, 0xf4, 0xb4, 0x3d,
  0x76, 0x5a, 0xd3, 0x3b, 0x88, 0x2e, 0x22, 0xbd, 0xe4, 0x9e, 0x6f, 0xbd,
  0xa6, 0xbe, 0x83, 0x3d, 0xa9, 0x10, 0xf5, 0x3b, 0xb2, 0xb8, 0xc6, 0x3b,
  0xf1, 0xe6, 0xb7, 0x3b, 0xb5, 0x1f, 0xfb, 0xbc, 0xa1, 0xcc, 0xd6, 0x3c,
  0x2c, 0xb0, 0xe6, 0x3c, 0xac, 0x46, 0xb8, 0x3d, 0x17, 0xd5, 0xc0, 0xbd,
  0xc0, 0xf9, 0x98, 0xbd, 0x9a, 0x07, 0xb6, 0xbd, 0x3a, 0x54, 0xbd, 0x3d,
  0x66, 0x5c, 0xd0, 0xbb, 0xbf, 0x7e, 0xb4, 0xbd, 0x56, 0x5f, 0x78, 0x3c,
  0x53, 0x4b, 0x92, 0x3d, 0xcf, 0x9f, 0x7c, 0x3d, 0x4f, 0xfa, 0x35, 0x3d,
  0xb8, 0x88, 0x19, 0x3a, 0x74, 0x72, 0x31, 0x3d, 0x7b, 0xe7, 0x47, 0xbd,
  0x9c, 0x64, 0x15, 0x3c, 0xe4, 0xf1, 0x4a, 0x3c, 0x27, 0xbe, 0xc2, 0xbd,
  0x15, 0xda, 0xb5, 0xbd, 0x3f, 0xce, 0x7c, 0xbd, 0x1a, 0xf1, 0xb7, 0x3a,
  0x95, 0x52, 0x08, 0x3d, 0x2c, 0x89, 0x45, 0xbd, 0xb4, 0x01, 0x96, 0xbd,
  0x9c, 0xfb, 0xe0, 0xbc, 0x42, 0xe0, 0xc3, 0xbd, 0x6a, 0xaf, 0x1a, 0x3d,
  0xc1, 0xcc, 0x77, 0xbd, 0xb6, 0xe3, 0x83, 0x3d, 0xc4, 0xf5, 0xcb, 0x3d,
  0x3e, 0x41, 0x15, 0xbc, 0x86, 0x4e, 0x9a, 0x3d, 0xea, 0xdf, 0xe4, 0xbc,
  0x41, 0xe3, 0xbb, 0x3b, 0xb8, 0xa5, 0xff, 0x3c, 0x76, 0x5a, 0xab, 0xbd,
  0x63, 0x23, 0xd3, 0x3b, 0xf6, 0x61, 0x55, 0x3d, 0x8d, 0x5a, 0xa2, 0x3d,
  0x54, 0xec, 0xa6, 0x3d, 0xce, 0xa3, 0x0a, 0x3c, 0x44, 0x07, 0xb4, 0xbd,
  0xa9, 0xa3, 0x07, 0x3d, 0x2b, 0x86, 0xce, 0xbc, 0x8f, 0x6f, 0x2d, 0xbd,
  0xf4, 0x41, 0xa1, 0x3d, 0x0d, 0x44, 0x86, 0xbd, 0x1e, 0x49, 0xe5, 0x3b,
  0xcf, 0x27, 0xa1, 0xbd, 0x27, 0x66, 0xf6, 0xbc, 0x30, 0x79, 0xb7, 0x3d,
  0xc9, 0xce, 0x55, 0x3d, 0xee, 0xe4, 0xfd, 0x3b, 0x10, 0xf4, 0x0f, 0x3d,
  0xee, 0xe9, 0x5b, 0x3d, 0xae, 0x98, 0x55, 0xbb, 0xbd, 0x99, 0x7a, 0x3d,
  0x23, 0x30, 0x89, 0x3d, 0x87, 0x6e, 0xef, 0x3b, 0xf2, 0xd8, 0x9d, 0xbd,
  0x60, 0xd4, 0xb2, 0x3c, 0x1a, 0x10, 0x99, 0x3d, 0xd0, 0x20, 0x9f, 0x3d,
  0x39, 0xe7, 0x24, 0x3d, 0x03, 0x86, 0x45, 0x3d, 0x0d, 0x6d, 0x02, 0x3d,
  0x6c, 0xef, 0x9b, 0xbc, 0xd0, 0xe0, 0xb3, 0x3d, 0xf2, 0x85, 0x82, 0xbc,
  0x3a, 0x37, 0x86, 0xbd, 0x2e, 0x59, 0xa4, 0xbc, 0x60, 0xae, 0x29, 0xbd,
  0xbb, 0x1a, 0x33, 0xbd, 0x77, 0xfa, 0xcb, 0xbc, 0x90, 0x1d, 0xcc, 0x3d,
  0x1a, 0x88, 0x0d, 0xbd, 0xa4, 0x6a, 0xa7, 0x3d, 0xdd, 0x79, 0x94, 0x3d,
  0x93, 0x9b, 0x4a, 0x3c, 0xfb, 0x49, 0x2e, 0xbd, 0x98, 0xff, 0x8b, 0x3d,
  0xd1, 0x0c, 0xa7, 0x3d, 0xd6, 0x45, 0x91, 0xbd, 0x2a, 0xf5, 0xc9, 0xbc,
  0x99, 0x50, 0xfd, 0x3c, 0xb7, 0xdc, 0x9d, 0xbc, 0xe6, 0x05, 0x83, 0x3d,
  0x90, 0x2a, 0xdc, 0x3c, 0xd6, 0xee, 0xb1, 0x3d, 0xff, 0x04, 0x2b, 0xbc,
  0xc6, 0x56, 0x1d, 0xbd, 0xa6, 0xc1, 0x3c, 0x3d, 0x35, 0xe8, 0x10, 0xbd,
  0xc8, 0xcf, 0x24, 0xbd, 0xac, 0xd6, 0x22, 0x3d, 0xb1, 0x7b, 0x88, 0x3c,
  0xf3, 0x09, 0xe5, 0xbc, 0x06, 0x31, 0xd8, 0xbc, 0x4e, 0x55, 0x9a, 0xbd,
  0xc7, 0x95, 0xac, 0xbd, 0xfb, 0x60, 0xc3, 0xbd, 0x02, 0xfd, 0xfe, 0x3c,
  0xb5, 0x1c, 0xbd, 0xbd, 0xf4, 0x26, 0xb2, 0xbd, 0xe2, 0xaf, 0x0b, 0xbd,
  0xa1, 0x8f, 0x8b, 0x3b, 0xff, 0x87, 0xa1, 0x3d, 0x4c, 0x17, 0xce, 0x3d,
  0x67, 0x6c, 0x68, 0xbc, 0x61, 0xa5, 0x97, 0xbd, 0xfd, 0xe7, 0xc1, 0x3d,
  0x09, 0x45, 0x9f, 0xbd, 0x79, 0x56, 0x0d, 0x3d, 0x57, 0xe7, 0x31, 0x3d,
  0x78, 0x7c, 0xd3, 0x3c, 0xc7, 0xd4, 0x4d, 0x3c, 0x14, 0x4e, 0xb2, 0x3d,
  0x2d, 0xcf, 0x96, 0x3d, 0x4a, 0x96, 0xc4, 0xbd, 0x7b, 0x91, 0x5f, 0x3d,
  0x4c, 0xb6, 0x05, 0xbc, 0xe7, 0xdc, 0xbe, 0xbd, 0xd9, 0x5e, 0xc5, 0x3d,
  0x70, 0xf2, 0x78, 0xbd, 0xea, 0xab, 0xc1, 0x3d, 0x14, 0x0a, 0x95, 0xbd,
  0xe3, 0x9e, 0x87, 0xbd, 0x57, 0x54, 0x9c, 0x3d, 0x7d, 0xc3, 0x9b, 0xbd,
  0xba, 0xf2, 0xdf, 0x3c, 0xd0, 0xb2, 0xa7, 0x3d, 0x39, 0xc2, 0x1d, 0xbd,
  0x06, 0x60, 0x9a, 0x3d, 0x85, 0xcf, 0x3c, 0x3d, 0x9c, 0x77, 0x83, 0x3b,
  0xa3, 0xc3, 0xd9, 0x3c, 0x56, 0x2c, 0xb2, 0x3d, 0xd2, 0x04, 0xe3, 0x3c,
  0x43, 0xc9, 0x46, 0x3c, 0xc9, 0x22, 0x56, 0x3d, 0xd1, 0x34, 0x95, 0x3d,
  0xf0, 0x4d, 0x37, 0x3d, 0xe9, 0xd0, 0xab, 0x3d, 0x47, 0x4a, 0x58, 0x3d,
  0x6a, 0xe7, 0x1f, 0xbd, 0x74, 0xc4, 0x0e, 0xbd, 0xe3, 0x2d, 0xbc, 0xbc,
  0x03, 0x3f, 0xf8, 0xbc, 0xe1, 0x6f, 0x1d, 0x3d, 0x8a, 0x99, 0x97, 0x3d,
  0x1a, 0xab, 0x33, 0xbd, 0x70, 0xb3, 0x2a, 0xbd, 0xf0, 0x02, 0x9c, 0xbd,
  0x63, 0x38, 0x37, 0xbd, 0x32, 0xd8, 0xa6, 0xbc, 0x24, 0x34, 0xa8, 0xbd,
  0x07, 0x95, 0x4b, 0x3d, 0xd0, 0x54, 0x53, 0xbd, 0x1e, 0x5b, 0x74, 0xbd,
  0x64, 0xd5, 0xa2, 0xbd, 0x06, 0x03, 0x26, 0xbd, 0xd5, 0xc2, 0xbb, 0xbd,
  0xb3, 0x56, 0x98, 0xbd, 0x6f, 0x25, 0x90, 0x3d, 0x3b, 0x7b, 0xc4, 0x3c,
  0xbf, 0xbe, 0xa7, 0x3c, 0xd3, 0x3a, 0x90, 0x3d, 0x3b, 0x44, 0x57, 0xbd,
  0xcd, 0xd6, 0xca, 0x3d, 0x26, 0x94, 0xaa, 0x3d, 0xff, 0xcf, 0xc0, 0xbd,
  0xa4, 0xd7, 0x85, 0x3d, 0xd8, 0xbe, 0xb1, 0x3d, 0xcf, 0x63, 0x43, 0x3d,
  0x2d, 0x75, 0x92, 0x3d, 0x9f, 0x38, 0x8f, 0xbd, 0xad, 0x05, 0x15, 0xbd,
  0x74, 0xc2, 0xac, 0xbb, 0xa3, 0x16, 0x87, 0xbd, 0xb1, 0xa3, 0x87, 0xbd,
  0xfa, 0x5b, 0x6d, 0xbd, 0xc7, 0x87, 0xb7, 0x3d, 0x01, 0xbd, 0x5e, 0x3c,
  0x04, 0x49, 0x8d, 0xbd, 0xb3, 0x50, 0x73, 0xbd, 0xf4, 0xe8, 0xe3, 0xbb,
  0x30, 0xa1, 0x1e, 0x3c, 0x17, 0x8a, 0xcd, 0x3d, 0xf0, 0x6d, 0x9d, 0x3d,
  0xea, 0xc4, 0x83, 0xbd, 0x5a, 0xc5, 0x94, 0x3d, 0x48, 0x1f, 0xb0, 0xbb,
  0xed, 0x73, 0x02, 0xbc, 0x5c, 0x11, 0xab, 0xbd, 0xe1, 0x1a, 0xbe, 0xbd,
  0xe8, 0x86, 0x89, 0x3c, 0x93, 0xb5, 0x32, 0xbd, 0x18, 0x58, 0xbf, 0x3d,
  0xa9, 0x81, 0x3f, 0xbc, 0x3b, 0x29, 0x67, 0xbd, 0x70, 0x92, 0x94, 0x3d,
  0x3d, 0xf8, 0x2b, 0x3c, 0x5f, 0xaf, 0x99, 0xbd, 0xe2, 0x87, 0xb0, 0x3c,
  0xb8, 0x18, 0xc6, 0x39, 0x76, 0x8b, 0xcf, 0xbc, 0xc6, 0xf4, 0xf5, 0xbb,
  0xa4, 0x7a, 0x80, 0x3d, 0x21, 0xe5, 0x56, 0x3d, 0x13, 0x46, 0x38, 0x3d,
  0xf4, 0x69, 0x7a, 0x3a, 0x16, 0xf8, 0x94, 0x3d, 0xb9, 0x9b, 0x45, 0x3d,
  0x88, 0xfb, 0x51, 0x3d, 0x1e, 0x85, 0x38, 0x3d, 0x4a, 0x7f, 0x15, 0x3c,
  0x3c, 0xed, 0x56, 0xbc, 0xad, 0x6e, 0xb4, 0x3c, 0x66, 0x5b, 0x6f, 0xbd,
  0xf2, 0xfb, 0x84, 0xbd, 0x02, 0xa8, 0x57, 0xbc, 0x04, 0xc9, 0xb3, 0x3d,
  0x6f, 0x9a, 0xba, 0x3d, 0xe0, 0xa7, 0xdd, 0xbb, 0x05, 0x3f, 0x85, 0xbd,
  0x64, 0xe8, 0xe5, 0x3c, 0x15, 0x17, 0xb3, 0x3d, 0xe1, 0xf2, 0x85, 0xbc,
  0xc0, 0xb1, 0xbd, 0x3d, 0xf7, 0x65, 0x55, 0xbd, 0x0f, 0x5b, 0xd1, 0x3d,
  0x4a, 0xf5, 0xd1, 0x3d, 0xd2, 0x00, 0xb6, 0x3d, 0x48, 0xe6, 0x23, 0xbc,
  0x07, 0x73, 0x8c, 0x3d, 0x23, 0x20, 0x1e, 0xbd, 0x9d, 0x0c, 0x5d, 0xbd,
  0x25, 0x80, 0xa0, 0x3d, 0xed, 0x12, 0x52, 0x3d, 0xec, 0x6f, 0x1d, 0x3d,
  0xc2, 0xdd, 0x9b, 0x3d, 0x9a, 0x0d, 0x0d, 0xbd, 0x0e, 0xa9, 0x5e, 0xbd,
  0x43, 0x6a, 0x55, 0xbc, 0xf6, 0xb7, 0x0f, 0x3c, 0xa0, 0x71, 0xa7, 0x3b,
  0x27, 0x3b, 0x09, 0x3c, 0x0d, 0xb8, 0x42, 0xbd, 0xb0, 0x56, 0xc6, 0x3d,
  0xc8, 0x1d, 0xc5, 0xbd, 0xc4, 0xf2, 0xd1, 0x3d, 0x94, 0xc1, 0xb3, 0xbd,
  0x53, 0x88, 0x48, 0xbd, 0xe0, 0xa2, 0xd1, 0x3c, 0x62, 0x66, 0x94, 0xbd,
  0xce, 0xea, 0x53, 0x3d, 0x75, 0x48, 0x63, 0xbd, 0xdc, 0x0b, 0x6c, 0xbd,
  0xdf, 0xaa, 0x73, 0xbd, 0x68, 0xd6, 0x3a, 0x3d, 0x9a, 0xca, 0x3f, 0x3c,
  0xa2, 0xa6, 0x2d, 0x3b, 0xa0, 0x59, 0x8e, 0xbd, 0x96, 0x81, 0x63, 0xbd,
  0xca, 0x02, 0x38, 0x3d, 0xc5, 0x26, 0x7d, 0xbd, 0xaf, 0xbd, 0xc5, 0xbc,
  0x20, 0x90, 0xbf, 0xbd, 0x99, 0x7a, 0x40, 0xbd, 0x02, 0xd3, 0xc9, 0x3b,
  0xe6, 0x39, 0xc3, 0xbc, 0x73, 0x05, 0x95, 0x3d, 0x7f, 0xef, 0x20, 0xbd,
  0x40, 0xa2, 0xb9, 0xbd, 0xae, 0x91, 0x68, 0x3c, 0x63, 0x57, 0x6e, 0xbd,
  0x36, 0xcf, 0xce, 0x3d, 0x87, 0x28, 0x8d, 0x3d, 0xc3, 0x6e, 0x0b, 0x3d,
  0x94, 0xe8, 0xa7, 0x3d, 0x07, 0x45, 0x23, 0xbd, 0xaa, 0x9c, 0x96, 0xbd,
  0xd8, 0xbf, 0xd4, 0xbc, 0x83, 0x9e, 0x33, 0xbd, 0x59, 0x08, 0x8d, 0xbd,
  0xb2, 0xc0, 0xb2, 0x3d, 0x60, 0xae, 0xba, 0xbd, 0xe7, 0x38, 0xd9, 0x3c,
  0x2b, 0x8f, 0xa6, 0xbd, 0x65, 0x85, 0x88, 0x3d, 0x20, 0x86, 0xc7, 0x3c,
  0x46, 0x04, 0x27, 0xbd, 0x3c, 0x01, 0x75, 0x3d, 0xfa, 0x43, 0x0f, 0x3d,
  0x68, 0xbb, 0x2a, 0xbd, 0x4a, 0x6d, 0xc2, 0x3d, 0x1e, 0x8e, 0xac, 0xbd,
  0x6c, 0x1d, 0x6e, 0xbd, 0xd2, 0x1d, 0x85, 0xbd, 0x77, 0x68, 0x5e, 0xbd,
  0x59, 0xb4, 0x3a, 0xbd, 0x99, 0x97, 0xa3, 0xbd, 0x84, 0x12, 0xa4, 0x3c,
  0xab, 0xb0, 0x11, 0x3d, 0xac, 0x3c, 0x79, 0xbd, 0x7d, 0x5d, 0x8c, 0x3d,
  0xb1, 0xa9, 0xb8, 0x3d, 0x45, 0x9c, 0x78, 0xbd, 0xab, 0x1e, 0xc8, 0x3c,
  0xce, 0x60, 0xe7, 0xbc, 0x68, 0x56, 0x0c, 0xbc, 0x38, 0xcc, 0xbf, 0x3d,
  0x47, 0x0b, 0xa7, 0x3d, 0x01, 0xd9, 0x5e, 0x3d, 0xe3, 0x0e, 0x31, 0x3d,
  0xf1, 0xa7, 0x00, 0x3d, 0xf9, 0x62, 0x1b, 0xbd, 0x10, 0xde, 0x93, 0xbb,
  0x55, 0x72, 0x83, 0x3d, 0x5a, 0x24, 0x89, 0xbd, 0x89, 0xff, 0x0e, 0x3d,
  0x0d, 0x4f, 0xeb, 0xbc, 0xa0, 0x6e, 0x9d, 0xbd, 0x3e, 0xe3, 0x42, 0x3d,
  0xef, 0xf4, 0x3a, 0xbd, 0xe9, 0xe6, 0xb3, 0xbd, 0x26, 0x2c, 0x9d, 0x3c,
  0x64, 0x6a, 0x12, 0xbd, 0x1a, 0x29, 0x9e, 0xbd, 0x01, 0xd8, 0x51, 0x3d,
  0x21, 0xd0, 0x03, 0x3c, 0xd7, 0x33, 0xae, 0xbd, 0x41, 0x0c, 0x18, 0xbd,
  0xf9, 0xa3, 0x92, 0xbd, 0x66, 0xbe, 0x29, 0x3d, 0xfb, 0xe7, 0x92, 0xbd,
  0xc3, 0x8e, 0x41, 0xbb, 0x84, 0x4e, 0x6b, 0x3d, 0xd8, 0xfe, 0xb7, 0x3c,
  0x42, 0x99, 0xa0, 0x3d, 0x4c, 0x40, 0x3d, 0xbc, 0x98, 0xe7, 0x03, 0x3d,
  0x72, 0xdb, 0x61, 0xbd, 0xf9, 0xfb, 0x02, 0x3c, 0x26, 0x67, 0x9b, 0x3d,
  0x96, 0x57, 0x1b, 0x3c, 0x63, 0x97, 0x10, 0x3d, 0xa2, 0xe3, 0x30, 0x3c,
  0x14, 0x05, 0xc4, 0xbd, 0x41, 0x97, 0xa0, 0xbd, 0xd2, 0x57, 0x2a, 0x3c,
  0xe4, 0x12, 0x7e, 0xbd, 0x0e, 0x20, 0xa4, 0xbd, 0x5c, 0x28, 0x6a, 0xbd,
  0xbc, 0x73, 0x84, 0x3c, 0xec, 0x3e, 0xc2, 0x3c, 0xe2, 0x40, 0x86, 0x3c,
  0x47, 0xf4, 0xa6, 0xbd, 0xed, 0x6c, 0xa9, 0xbd, 0x9f, 0xd4, 0x5f, 0xbc,
  0xad, 0xed, 0xee, 0x3c, 0x0a, 0xa0, 0x88, 0xbd, 0xb5, 0x45, 0xa3, 0xbd,
  0xc8, 0x18, 0xd0, 0x3d, 0x22, 0xa3, 0xaa, 0xbc, 0x7c, 0xf3, 0x04, 0xbd,
  0x91, 0x27, 0x4b, 0xbd, 0xb4, 0x56, 0xfc, 0xbc, 0x2c, 0x7b, 0x62, 0xbd,
  0x22, 0x4e, 0xbf, 0x3c, 0x5c, 0xcb, 0xfb, 0xbc, 0x22, 0xbd, 0x8c, 0xbd,
  0xf8, 0x68, 0x9e, 0xbc, 0x58, 0x72, 0x3a, 0xbd, 0x49, 0x4c, 0x4e, 0xbd,
  0x95, 0x21, 0x3f, 0x3d, 0xfe, 0xc3, 0x6b, 0x3d, 0x42, 0xa1, 0xb5, 0x3d,
  0x9d, 0x7b, 0x8f, 0x3d, 0xd4, 0xf6, 0x19, 0xbd, 0xbf, 0x3d, 0x70, 0xbc,
  0x38, 0x6b, 0x80, 0x3b, 0x23, 0x94, 0x8d, 0xbd, 0x38, 0xad, 0xc2, 0xbd,
  0x30, 0xdb, 0xc1, 0xbd, 0x01, 0x5c, 0x93, 0xbd, 0x3e, 0x7e, 0x46, 0x3d,
  0xb5, 0x2b, 0xb4, 0xbd, 0x88, 0x42, 0x07, 0x3d, 0xc2, 0xa1, 0xb9, 0xbc,
  0xc9, 0x6e, 0x7b, 0xbc, 0x0d, 0xca, 0xa8, 0x3c, 0x8e, 0x57, 0x85, 0x3d,
  0xc6, 0x52, 0xfb, 0xba, 0x64, 0xf6, 0x9b, 0xbd, 0xed, 0xbd, 0x84, 0xbc,
  0x1c, 0x77, 0x05, 0xbd, 0xb9, 0x0b, 0xba, 0x3d, 0x62, 0xac, 0xa3, 0x3d,
  0x3b, 0x11, 0x13, 0x3d, 0x86, 0x8b, 0x2e, 0x3d, 0x12, 0x89, 0x97, 0x3d,
  0x23, 0x6f, 0xeb, 0x3b, 0xa5, 0x59, 0x33, 0x3d, 0xfd, 0x84, 0x74, 0xbd,
  0x3e, 0xa3, 0x80, 0x3d, 0xb8, 0x9f, 0x3a, 0x3d, 0x4b, 0x79, 0x1d, 0x3d,
  0x53, 0xbb, 0x0e, 0x3d, 0x5d, 0xea, 0x08, 0x3d, 0x45, 0x0f, 0xe1, 0xbc,
  0xb4, 0xe8, 0x3a, 0xbc, 0x46, 0x51, 0x2e, 0x3d, 0x80, 0x4e, 0x8f, 0x3d,
  0x9e, 0x02, 0x96, 0xbd, 0x05, 0x57, 0xaf, 0x3c, 0x5b, 0x9e, 0xc0, 0xbd,
  0xf6, 0xff, 0x99, 0x3d, 0xb0, 0xff, 0x0c, 0xbd, 0x68, 0xd4, 0x81, 0x3d,
  0x1a, 0x7f, 0x17, 0x3d, 0x68, 0x1c, 0x99, 0x3d, 0xcc, 0x8f, 0x90, 0x3d,
  0x7f, 0x1d, 0x23, 0xbd, 0xfb, 0xdc, 0x33, 0x3d, 0x41, 0x2a, 0x74, 0x3d,
  0xe6, 0xf5, 0x9e, 0xbd, 0xcf, 0x2c, 0x67, 0x3c, 0xa3, 0xf8, 0xcf, 0xbb,
  0x6b, 0xa5, 0x6e, 0x3d, 0x19, 0x90, 0xa0, 0x3d, 0x68, 0xc1, 0x28, 0xbd,
  0x27, 0x4b, 0x10, 0xbd, 0xab, 0x40, 0xb2, 0xbd, 0x34, 0x76, 0x87, 0x3d,
  0xb6, 0x83, 0x43, 0x3d, 0xe4, 0xac, 0x88, 0xbc, 0x28, 0x60, 0xa7, 0xbd,
  0x4f, 0x84, 0x35, 0xbc, 0x84, 0xd7, 0x9c, 0x3d, 0x57, 0xfd, 0xea, 0x3c,
  0x0d, 0xf4, 0x3c, 0xbd, 0xd1, 0x93, 0x83, 0x3b, 0x36, 0xa2, 0x9d, 0x3d,
  0xcc, 0x6c, 0x14, 0x3d, 0x4b, 0xc7, 0xa4, 0xbc, 0x2c, 0x91, 0x3a, 0x3d,
  0xfc, 0x61, 0x69, 0x3d, 0xfe, 0x90, 0x9b, 0x3d, 0xb6, 0xd2, 0x57, 0xbd,
  0xed, 0x56, 0xb7, 0xbb, 0x78, 0x64, 0xc1, 0x3d, 0x42, 0x29, 0x23, 0x3c,
  0xc1, 0x9b, 0x4a, 0x3d, 0x5b, 0xc6, 0xb6, 0x3d, 0xd4, 0x76, 0x8d, 0x3d,
  0xed, 0xa7, 0x7a, 0x3d, 0x19, 0xbb, 0xb0, 0x3c, 0x86, 0x01, 0xb1, 0x3c,
  0x9e, 0x05, 0xb7, 0xbd, 0x3b, 0x40, 0x92, 0xbd, 0xbd, 0x10, 0x98, 0x3d,
  0x1c, 0xdf, 0x86, 0xbd, 0x83, 0x57, 0x32, 0x3d, 0x7a, 0x8d, 0x85, 0xbd,
  0x08, 0x9a, 0x94, 0x3d, 0xe5, 0x24, 0x58, 0xbd, 0xf0, 0xaa, 0xe1, 0xbc,
  0x5f, 0x68, 0x94, 0x3d, 0xbb, 0x9e, 0xc8, 0x3c, 0xf9, 0xc5, 0xae, 0xbd,
  0x58, 0x1b, 0x52, 0x3d, 0x66, 0x6e, 0x3d, 0x3c, 0xe4, 0xa7, 0x31, 0x3c,
  0xb9, 0x1d, 0x37, 0x3d, 0x27, 0x7d, 0x7d, 0x3d, 0x01, 0x4b, 0xc2, 0xbd,
  0x22, 0x5e, 0x98, 0x3d, 0x85, 0x98, 0x25, 0xbb, 0xc2, 0x57, 0xf8, 0xbc,
  0x4e, 0x46, 0x98, 0x3d, 0xa0, 0x59, 0x90, 0x3c, 0xd1, 0xfb, 0x8c, 0xbd,
  0x6c, 0x7b, 0x8a, 0xbc, 0xb1, 0x6f, 0x22, 0xbd, 0x87, 0x66, 0xba, 0xbd,
  0x48, 0x1b, 0x09, 0xbc, 0x6a, 0x20, 0xaa, 0xbd, 0xcd, 0xc5, 0x3e, 0xbd,
  0x6b, 0xa1, 0x26, 0xbd, 0xa8, 0xeb, 0xd7, 0x3c, 0xc0, 0x59, 0xc5, 0x3d,
  0x80, 0x10, 0xb3, 0x3c, 0x19, 0x48, 0x30, 0xbd, 0x64, 0xa3, 0x28, 0x3d,
  0x86, 0x04, 0x08, 0xbd, 0xc6, 0x37, 0xb9, 0x3d, 0xa1, 0x1d, 0xae, 0xbd,
  0xac, 0x7b, 0x92, 0xbd, 0xc0, 0xb1, 0x6f, 0x3b, 0xc4, 0xb8, 0x9f, 0xbd,
  0x34, 0xc0, 0x13, 0x3d, 0x8c, 0x5a, 0x44, 0x3d, 0xc0, 0xb8, 0x19, 0xbc,
  0x1e, 0x08, 0x98, 0xbd, 0xa0, 0x13, 0x96, 0x3d, 0xc0, 0x28, 0x31, 0xbd,
  0x8c, 0xc0, 0xc4, 0x3d, 0x50, 0x4a, 0x94, 0x3c, 0xda, 0x25, 0xa3, 0x3d,
  0x20, 0xed, 0x55, 0x3d, 0xf6, 0x5b, 0xa6, 0x3d, 0xd8, 0xe9, 0xad, 0xbc,
  0x40, 0xd9, 0x91, 0x3c, 0x11, 0x15, 0x83, 0xbd, 0x10, 0x02, 0xfa, 0xbc,
  0xc0, 0x5b, 0x85, 0x3d, 0x8b, 0x98, 0xc4, 0xbd, 0x3f, 0x86, 0xc8, 0xbd,
  0xff, 0xc3, 0x1d, 0xbd, 0xc6, 0x50, 0xc1, 0x3d, 0x78, 0xe9, 0xe8, 0x3c,
  0x5b, 0x05, 0x79, 0xbd, 0xf8, 0x8a, 0xbd, 0xbc, 0x76, 0x19, 0xb7, 0x3d,
  0xb5, 0x32, 0xca, 0xbd, 0x1c, 0x52, 0x68, 0x3d, 0xac, 0x72, 0xa0, 0xbd,
  0xa8, 0x7e, 0x0f, 0xbd, 0xd8, 0xf1, 0x64, 0xbc, 0xea, 0x32, 0x4c, 0xbd,
  0x38, 0x48, 0x67, 0x3d, 0xee, 0x96, 0xa0, 0xbd, 0x4c, 0xc2, 0xb9, 0x3d,
  0x28, 0x5d, 0xe6, 0x3c, 0x90, 0x12, 0x9d, 0x3b, 0x7c, 0xe7, 0x8d, 0xbd,
  0xc0, 0xd8, 0xa4, 0x3b, 0x6a, 0x28, 0xbf, 0xbd, 0xee, 0x3a, 0xcb, 0x3d,
  0x30, 0x1c, 0xea, 0x3b, 0x94, 0x54, 0xad, 0x3d, 0xc2, 0xc0, 0xb6, 0xbd,
  0xc2, 0xaa, 0x9a, 0x3d, 0x4e, 0xc3, 0x41, 0xbd, 0x94, 0x5b, 0x4d, 0xbd,
  0xf5, 0x65, 0x46, 0xbd, 0xae, 0x82, 0x70, 0xbd, 0x3c, 0x92, 0x93, 0x3d,
  0xf8, 0x75, 0x62, 0x3d, 0xfe, 0xb4, 0xc7, 0xbd, 0xbc, 0xdb, 0x30, 0x3d,
  0x0c, 0x13, 0x94, 0xbc, 0x60, 0xbd, 0x54, 0x3c, 0x62, 0xab, 0xc8, 0x3d,
  0xaa, 0xf0, 0x96, 0xbd, 0x2c, 0x7e, 0xba, 0xbc, 0x94, 0xa0, 0x4c, 0x3d,
  0x87, 0x61, 0x4f, 0xbd, 0x5e, 0x5c, 0x83, 0x3d, 0x10, 0xfa, 0x48, 0x3d,
  0x60, 0x8f, 0xc1, 0x3d, 0xc4, 0x7c, 0x6b, 0x3d, 0xdf, 0xd1, 0x93, 0xbd,
  0xce, 0x3b, 0xa0, 0x3d, 0x14, 0x10, 0x1c, 0x3d, 0xc4, 0x08, 0x85, 0x3c,
  0xe4, 0x9a, 0xca, 0xbc, 0x1d, 0x8f, 0x23, 0xbd, 0x3d, 0x66, 0x4f, 0xbd,
  0xa6, 0xdd, 0x7f, 0xbd, 0x08, 0xdd, 0xbb, 0xbd, 0x36, 0xf0, 0x73, 0xbd,
  0xca, 0xaa, 0x32, 0xbd, 0x10, 0x70, 0x0e, 0x3d, 0xa0, 0x11, 0x41, 0xbc,
  0xa0, 0x79, 0xf2, 0x3b, 0x74, 0xa5, 0xbb, 0x3d, 0x18, 0x1d, 0x54, 0xbc,
  0xc0, 0xd7, 0x2c, 0x3c, 0xf8, 0xd4, 0x58, 0xbc, 0x88, 0xd4, 0x70, 0xbc,
  0x68, 0x00, 0x26, 0xbd, 0x98, 0xa9, 0x16, 0x3d, 0xf4, 0xda, 0x71, 0x3d,
  0xe8, 0x30, 0x49, 0xbc, 0xad, 0x20, 0xbf, 0xbd, 0x5a, 0xc1, 0xa6, 0xbd,
  0xf4, 0x71, 0x18, 0xbd, 0x30, 0x5c, 0xa0, 0xbd, 0xa0, 0x93, 0xb0, 0x3c,
  0x0e, 0x31, 0x81, 0xbd, 0x80, 0x96, 0xec, 0x3c, 0xfb, 0x0e, 0x69, 0xbd,
  0x4c, 0x96, 0x39, 0x3d, 0x84, 0x19, 0x13, 0x3d, 0xdc, 0x0c, 0x95, 0xbd,
  0x43, 0x76, 0xc1, 0xbd, 0xc7, 0x79, 0xad, 0xbd, 0x78, 0x45, 0xd0, 0x3c,
  0x3d, 0xfc, 0x69, 0xbd, 0xac, 0xfc, 0x81, 0x3d, 0xfe, 0xd7, 0x9c, 0x3d,
  0x0a, 0x08, 0x14, 0xbd, 0x40, 0x8f, 0x60, 0x3d, 0x93, 0x20, 0x67, 0xbd,
  0x00, 0x18, 0x47, 0x3c, 0xd0, 0x03, 0x8e, 0xbb, 0x95, 0x95, 0xae, 0xbd,
  0xe8, 0x7c, 0x94, 0xbc, 0xc4, 0x4a, 0xa9, 0xbd, 0xb4, 0x7a, 0xbe, 0x3d,
  0xb8, 0x7b, 0x3e, 0x3c, 0xdc, 0xbd, 0x8e, 0x3d, 0x40, 0x1e, 0xaa, 0xbb,
  0xc0, 0xe4, 0x2c, 0xbb, 0xa0, 0x56, 0x27, 0xbb, 0xc2, 0xe7, 0xac, 0x3d,
  0xaa, 0x87, 0xc4, 0x3d, 0x10, 0xd8, 0xeb, 0xbb, 0x74, 0xa2, 0x6d, 0x3d,
  0xd8, 0x40, 0xce, 0x3c, 0x68, 0xfb, 0x60, 0x3d, 0x72, 0x29, 0x33, 0xbd,
  0xc0, 0x5a, 0xd4, 0x3c, 0x60, 0x71, 0xfe, 0x3c, 0x0e, 0x4f, 0x94, 0x3d,
  0x00, 0xc7, 0x34, 0x3c, 0xc3, 0x83, 0x5e, 0xbd, 0x3c, 0xbc, 0x8a, 0x3d,
  0x10, 0xfa, 0xa0, 0xbc, 0x4b, 0x02, 0x89, 0xbd, 0x03, 0xe0, 0x99, 0xbd,
  0xf0, 0x93, 0xb4, 0x3d, 0x48, 0x7f, 0x0b, 0x3d, 0x8a, 0xd9, 0x84, 0x3d,
  0x89, 0x11, 0x8c, 0xbd, 0x88, 0xc5, 0x65, 0x3d, 0xc0, 0xb0, 0xdc, 0x3a,
  0x6c, 0x42, 0x93, 0xbd, 0x6a, 0xb2, 0xab, 0x3d, 0x14, 0xcd, 0x28, 0x3d,
  0xe8, 0x02, 0xa3, 0x3d, 0x7b, 0x2d, 0x1a, 0xbd, 0xbc, 0x40, 0xba, 0x3c,
  0x54, 0x2f, 0xbe, 0xbd, 0xd0, 0xd4, 0x92, 0xbc, 0x26, 0x9e, 0xbf, 0x3d,
  0x08, 0x25, 0x62, 0x3c, 0xb0, 0xbc, 0xa8, 0xbd, 0xa0, 0xbe, 0xb9, 0xbd,
  0x12, 0x7b, 0x99, 0x3d, 0x73, 0xec, 0x24, 0xbd, 0x90, 0xa8, 0x38, 0xbd,
  0x44, 0x1a, 0xa1, 0xbd, 0x85, 0x30, 0xa7, 0xbd, 0x80, 0x07, 0xf5, 0x3c,
  0x64, 0x00, 0xc2, 0xbd, 0x84, 0xe0, 0x71, 0xbd, 0x1e, 0x88, 0xba, 0x3d,
  0x18, 0x85, 0x57, 0xbd, 0x60, 0x67, 0x81, 0x3b, 0xed, 0xee, 0x6d, 0xbd,
  0x60, 0x65, 0x18, 0x3c, 0x1c, 0x00, 0x2f, 0x3d, 0xc0, 0x04, 0x60, 0xbc,
  0xf8, 0xca, 0x7c, 0x3d, 0x04, 0xba, 0x07, 0x3d, 0x00, 0x3e, 0x5e, 0xba,
  0x00, 0x5a, 0x68, 0x39, 0xd1, 0x80, 0xc0, 0xbd, 0xc2, 0xaf, 0x8d, 0x3d,
  0x98, 0xf7, 0x0c, 0xbc, 0x08, 0xc4, 0xd9, 0x3c, 0x04, 0x64, 0xb7, 0x3c,
  0xfa, 0xc4, 0x85, 0xbd, 0x25, 0xf7, 0x2d, 0xbd, 0xd0, 0xe7, 0xdc, 0xbb,
  0xdc, 0x7a, 0xad, 0x3c, 0xfc, 0x7c, 0x1d, 0xbd, 0xf0, 0x44, 0x64, 0xbc,
  0x40, 0x1c, 0x5b, 0xbc, 0x62, 0x60, 0xc3, 0x3d, 0x18, 0xf6, 0xfd, 0xbc,
  0x88, 0x2f, 0x16, 0xbd, 0x98, 0xd1, 0xc9, 0xbd, 0x68, 0xb4, 0xb7, 0x3c,
  0x1c, 0x01, 0xcd, 0x3c, 0x36, 0xef, 0x8d, 0xbd, 0x47, 0xbf, 0xa3, 0xbd,
  0xb4, 0xc9, 0x90, 0x3d, 0xa2, 0xf3, 0xc2, 0x3d, 0x40, 0xf6, 0x2a, 0xbc,
  0xf0, 0xa9, 0xde, 0xbb, 0x78, 0x44, 0x20, 0x3d, 0xa2, 0xc1, 0x0e, 0xbd,
  0x93, 0xae, 0x76, 0xbd, 0x94, 0x7a, 0x2f, 0x3d, 0x06, 0x32, 0x64, 0xbd,
  0xdd, 0xf7, 0x7e, 0xbd, 0x02, 0x93, 0xc0, 0x3d, 0xf0, 0x42, 0x0e, 0x3d,
  0x28, 0xdb, 0x05, 0xbc, 0x5c, 0xbe, 0x86, 0xbd, 0x8e, 0x7f, 0xae, 0x3d,
  0x4a, 0xe6, 0x8d, 0x3d, 0xae, 0xc4, 0xa5, 0xbd, 0x39, 0xa0, 0x74, 0xbd,
  0x88, 0x44, 0xcb, 0x3c, 0xc8, 0xfa, 0xe2, 0xbc, 0xe6, 0x91, 0x93, 0x3d,
  0xc8, 0x4d, 0xd4, 0xbc, 0xaa, 0xe1, 0x8e, 0xbd, 0xc0, 0x16, 0x82, 0xbb,
  0x18, 0x9c, 0x23, 0xbd, 0x56, 0x76, 0x93, 0xbd, 0x2e, 0xd9, 0xa1, 0x3d,
  0x20, 0xe9, 0x22, 0x3c, 0x9b, 0x55, 0x94, 0xbd, 0x80, 0xa0, 0x2e, 0x3d,
  0x98, 0x20, 0x67, 0x3c, 0xd0, 0x4e, 0xb6, 0xbd, 0x30, 0xd8, 0x8c, 0x3d,
  0xd0, 0x6c, 0x96, 0x3d, 0x71, 0xa9, 0x1a, 0xbd, 0x14, 0xb8, 0x8c, 0x3d,
  0xfe, 0x95, 0xb4, 0xbd, 0x3d, 0xfc, 0x50, 0xbd, 0x26, 0x32, 0xad, 0x3d,
  0x10, 0xc3, 0xaf, 0x3d, 0x7c, 0x44, 0x09, 0xbd, 0xc8, 0xd8, 0x4e, 0x3c,
  0xd4, 0x78, 0x00, 0x3d, 0x44, 0x36, 0x1f, 0x3d, 0x44, 0x2c, 0x25, 0x3d,
  0x94, 0x7e, 0x77, 0x3d, 0xa2, 0x4b, 0x9d, 0xbd, 0x14, 0xd5, 0x89, 0x3d,
  0x03, 0x1d, 0x19, 0xbd, 0xd4, 0x81, 0x90, 0x3d, 0x52, 0xd2, 0xc6, 0xbd,
  0xb4, 0x9f, 0xc1, 0x3c, 0x78, 0x99, 0x77, 0xbc, 0x54, 0x32, 0x21, 0x3d,
  0xbe, 0x19, 0x89, 0xbd, 0xe8, 0x84, 0x44, 0xbd, 0x00, 0x98, 0x71, 0xb9,
  0x5a, 0x04, 0x8d, 0xbd, 0x84, 0x0d, 0x1b, 0x3d, 0x72, 0xba, 0x86, 0xbd,
  0x10, 0x9d, 0xa6, 0x3d, 0xf5, 0x10, 0xb7, 0xbd, 0xe4, 0x1f, 0x84, 0xbd,
  0x66, 0x47, 0xb1, 0xbd, 0x38, 0x1b, 0x35, 0xbc, 0xda, 0x45, 0xc1, 0x3d,
  0x28, 0xba, 0x07, 0xbc, 0x38, 0x96, 0x06, 0xbd, 0x2c, 0xee, 0x67, 0x3d,
  0x18, 0x4c, 0x6d, 0xbd, 0x00, 0xd7, 0x00, 0xbb, 0x14, 0x2a, 0xcb, 0xbc,
  0x70, 0x49, 0x20, 0x3c, 0xba, 0xd4, 0x8a, 0xbd, 0xbf, 0x2b, 0x62, 0xbd,
  0xee, 0xed, 0xc0, 0xbd, 0xf0, 0x21, 0x08, 0x3c, 0x40, 0xc0, 0x5c, 0xbc,
  0x58, 0x03, 0x74, 0x3d, 0xcc, 0xdc, 0xa4, 0xbc, 0xf4, 0x2e, 0x95, 0x3c,
  0x56, 0x06, 0xbf, 0xbd, 0x30, 0xb2, 0x24, 0x3d, 0x2c, 0x3b, 0xad, 0x3d,
  0x40, 0xa7, 0x6b, 0xbc, 0x42, 0xf4, 0x8c, 0xbd, 0x7b, 0xdb, 0x73, 0xbd,
  0xb4, 0x62, 0x9f, 0xbd, 0x8a, 0xb4, 0x94, 0xbd, 0xd7, 0x94, 0xbe, 0xbd,
  0x2c, 0x35, 0x84, 0xbd, 0x0a, 0x39, 0x69, 0xbd, 0xd4, 0xd0, 0x0f, 0x3d,
  0x8d, 0x41, 0xc7, 0xbd, 0xec, 0x42, 0x47, 0x3d, 0xfb, 0x7c, 0xa5, 0xbd,
  0x70, 0xb4, 0x4a, 0xbd, 0x58, 0xdd, 0x5c, 0xbd, 0x34, 0xca, 0x27, 0x3d,
  0x8c, 0x38, 0x4d, 0x3d, 0x04, 0x36, 0x2b, 0xbd, 0x0f, 0x4c, 0x24, 0xbd,
  0xe4, 0x9a, 0xb7, 0x3c, 0x36, 0x28, 0xac, 0xbd, 0x88, 0xf0, 0xa5, 0xbc,
  0xa0, 0xd8, 0xd3, 0xbc, 0x18, 0x2b, 0x88, 0x3d, 0x00, 0x4e, 0x15, 0x39,
  0x7b, 0xc3, 0x1a, 0xbd, 0xc6, 0x62, 0xb1, 0x3d, 0x38, 0xbc, 0xac, 0xbd,
  0xde, 0x6f, 0xc3, 0xbd, 0xe2, 0xfd, 0xa1, 0xbd, 0xe8, 0xac, 0xb9, 0xbd,
  0x5c, 0x5b, 0x58, 0x3d, 0x18, 0xf4, 0x80, 0xbc, 0x20, 0xb6, 0x02, 0x3d,
  0x50, 0x35, 0xba, 0x3d, 0xe4, 0x1b, 0x57, 0x3d, 0xc0, 0xa7, 0xb7, 0x3d,
  0x4a, 0x52, 0xae, 0x3d, 0xfe, 0x81, 0x90, 0x3d, 0x68, 0x47, 0x9e, 0x3c,
  0x7c, 0x12, 0xb8, 0x3d, 0x70, 0x1b, 0xb5, 0x3d, 0x00, 0xd2, 0xc4, 0xbd,
  0xbb, 0x76, 0x82, 0xbd, 0x28, 0x57, 0x2c, 0xbd, 0x30, 0x32, 0x62, 0x3c,
  0xf9, 0x7a, 0xa0, 0xbd, 0x34, 0x10, 0xcb, 0x3c, 0x20, 0x9a, 0xdb, 0x3c,
  0x6c, 0xf9, 0xcc, 0xbc, 0x4a, 0xd1, 0x25, 0xbd, 0xa8, 0x51, 0x9d, 0x3d,
  0x28, 0xa4, 0x1a, 0x3d, 0x84, 0xe5, 0xc2, 0x3d, 0x8a, 0x48, 0x4e, 0xbd,
  0xba, 0xff, 0xa2, 0x3d, 0x8a, 0x2d, 0x95, 0xbd, 0x1c, 0x1a, 0x2d, 0x3d,
  0x90, 0xe7, 0x97, 0xbb, 0xdc, 0x22, 0x01, 0xbd, 0x42, 0xdf, 0xa8, 0xbd,
  0x54, 0x4b, 0x31, 0x3d, 0x31, 0x4e, 0xb6, 0xbd, 0x23, 0xd1, 0x66, 0xbd,
  0x4e, 0xb0, 0xb4, 0x3d, 0x10, 0xd7, 0x1d, 0x3d, 0xbc, 0x8a, 0xd4, 0xbc,
  0xd8, 0xc1, 0xf3, 0x3c, 0x2e, 0x21, 0x9c, 0x3d, 0xe4, 0x61, 0x3f, 0x3d,
  0x8c, 0xab, 0x47, 0x3d, 0xdc, 0xf8, 0x9d, 0x3d, 0x53, 0x6e, 0x55, 0xbd,
  0xa0, 0xe0, 0x13, 0xbc, 0x50, 0xf8, 0xca, 0x3d, 0xe1, 0x2a, 0x9e, 0xbd,
  0x38, 0xbd, 0x88, 0x3d, 0x63, 0xc8, 0xbc, 0xbd, 0x58, 0xdd, 0xa8, 0xbd,
  0x14, 0xdb, 0x0c, 0x3d, 0x5c, 0x90, 0xc9, 0x3d, 0x98, 0x1c, 0x90, 0x3d,
  0x60, 0xcb, 0xed, 0xbc, 0xd3, 0xdd, 0xaa, 0xbd, 0x48, 0xbf, 0xc8, 0x3d,
  0xa0, 0x8f, 0x6d, 0x3b, 0xd0, 0xd6, 0xc6, 0x3b, 0xf8, 0xa6, 0xc4, 0x3c,
  0x1f, 0x25, 0xa0, 0xbd, 0x68, 0xae, 0x21, 0x3d, 0xd8, 0xde, 0x58, 0xbc,
  0x3c, 0x67, 0xbc, 0xbd, 0x80, 0xb5, 0xee, 0x3a, 0x88, 0xd7, 0x51, 0x3d,
  0x6c, 0xf6, 0x6e, 0x3d, 0xf0, 0xa7, 0xb8, 0x3c, 0xdc, 0xc4, 0x95, 0x3c,
  0xf8, 0x90, 0x1b, 0xbd, 0x50, 0x99, 0xb1, 0xbd, 0x24, 0x80, 0xbc, 0x3d,
  0x38, 0xe0, 0x9c, 0xbd, 0x76, 0xf1, 0x63, 0xbd, 0xb8, 0x86, 0xc7, 0xbc,
  0x26, 0x4b, 0x9c, 0x3d, 0x1f, 0x0b, 0x99, 0xbd, 0x9a, 0xcc, 0xbe, 0x3d,
  0x98, 0x23, 0x58, 0x3d, 0x18, 0xd2, 0xdb, 0x3c, 0xc8, 0x96, 0xf1, 0x3c,
  0xa8, 0x01, 0x66, 0x3d, 0x00, 0x73, 0x26, 0x3b, 0x1c, 0x90, 0x56, 0x3d,
  0xe4, 0x43, 0x2b, 0x3d, 0xc8, 0x85, 0xc4, 0xbd, 0xd0, 0xb0, 0xed, 0x3c,
  0xe8, 0xe7, 0x51, 0x3d, 0xec, 0x93, 0x57, 0x3d, 0x40, 0x65, 0x56, 0xbc,
  0x74, 0x1a, 0x04, 0x3d, 0xd0, 0xe3, 0xb9, 0xbb, 0xaa, 0x77, 0xa9, 0x3d,
  0x6a, 0xee, 0xcb, 0x3d, 0x1a, 0x97, 0x34, 0xbd, 0x8c, 0x41, 0xcb, 0x3c,
  0x28, 0xa0, 0xa0, 0x3c, 0x24, 0xf0, 0x71, 0xbd, 0x0c, 0x2f, 0xb1, 0x3c,
  0x8c, 0x14, 0x8f, 0x3d, 0x08, 0x36, 0xa5, 0x3d, 0x94, 0xbf, 0xc9, 0xbc,
  0x64, 0xd8, 0xcd, 0xbc, 0x88, 0x4a, 0xdb, 0xbc, 0xb0, 0xee, 0x28, 0x3d,
  0x20, 0xf1, 0xaf, 0xbd, 0xc8, 0x75, 0xc4, 0xbd, 0xc3, 0x73, 0x7a, 0xbd,
  0x60, 0x02, 0xa6, 0x3c, 0xe0, 0x54, 0x98, 0xbc, 0x30, 0x77, 0x9d, 0x3d,
  0x70, 0x77, 0xba, 0x3d, 0xd3, 0x29, 0x3c, 0xbd, 0x5a, 0x17, 0xa1, 0xbd,
  0xb0, 0x7a, 0xac, 0x3d, 0x48, 0xb4, 0x35, 0x3d, 0x9a, 0xcb, 0xc8, 0xbd,
  0x3a, 0x8e, 0xaa, 0xbd, 0x01, 0xb7, 0x82, 0xbd, 0x26, 0x51, 0xa6, 0x3d,
  0x8a, 0xd7, 0x00, 0xbd, 0x18, 0xc0, 0x10, 0xbc, 0x25, 0x45, 0x44, 0xbd,
  0x04, 0x97, 0x12, 0xbd, 0xc0, 0xc9, 0xa3, 0x3d, 0xc8, 0xc6, 0x3d, 0x3d,
  0x1c, 0xbf, 0xed, 0xbc, 0x05, 0x2f, 0x9c, 0xbd, 0x88, 0x53, 0x0a, 0xbd,
  0x04, 0x88, 0xab, 0x3c, 0x0c, 0xbb, 0x13, 0xbd, 0x20, 0x32, 0x70, 0x3b,
  0x86, 0x06, 0x85, 0x3d, 0x48, 0x9c, 0x07, 0x3c, 0xc7, 0xa8, 0x30, 0xbd,
  0x88, 0xdf, 0xa9, 0x3c, 0xf8, 0xb8, 0x27, 0x3d, 0xf4, 0x18, 0x13, 0x3d,
  0x38, 0xd5, 0xa9, 0x3d, 0x4e, 0x3a, 0x98, 0x3d, 0xe0, 0xb0, 0x88, 0x3d,
  0x40, 0x08, 0x2c, 0xbb, 0x20, 0xa1, 0x60, 0xbc, 0x00, 0x68, 0xa7, 0xb9,
  0xba, 0x2d, 0x1b, 0xbd, 0xd0, 0x87, 0x1f, 0x3d, 0x2c, 0x1d, 0x81, 0x3d,
  0x2c, 0x81, 0x43, 0x3d, 0x58, 0xab, 0x1a, 0xbc, 0xa0, 0xcd, 0x3b, 0xbb,
  0xc0, 0x63, 0xd6, 0x3b, 0xfb, 0xac, 0x27, 0xbd, 0x60, 0xb0, 0xcb, 0xbc,
  0x13, 0xe5, 0x90, 0xbd, 0x64, 0x71, 0x98, 0x3d, 0x8c, 0xf8, 0x45, 0x3d,
  0x80, 0xdc, 0x07, 0x3d, 0xb8, 0x0c, 0x9e, 0x3d, 0x28, 0xce, 0x51, 0x3c,
  0xdc, 0x92, 0x84, 0xbd, 0xa4, 0x9c, 0xff, 0xbc, 0x86, 0xfa, 0x91, 0x3d,
  0x24, 0x76, 0x0f, 0x3d, 0xf0, 0x90, 0xac, 0x3c, 0xd0, 0x01, 0x5b, 0x3c,
  0x10, 0x12, 0xad, 0x3c, 0x15, 0x2d, 0x85, 0xbd, 0x1c, 0xaf, 0x39, 0x3d,
  0x4c, 0xb0, 0x26, 0x3d, 0xc4, 0xd3, 0x71, 0x3d, 0x03, 0x2a, 0xaf, 0xbd,
  0xc3, 0x24, 0x67, 0xbd, 0xe8, 0xc7, 0x5e, 0x3d, 0x62, 0x0f, 0x98, 0x3d,
  0xde, 0xc3, 0xc0, 0xbd, 0xec, 0x5c, 0x5d, 0x3d, 0x71, 0x1a, 0x93, 0xbd,
  0x93, 0x78, 0xb0, 0xbd, 0x28, 0x7f, 0xdf, 0x3c, 0xfc, 0x56, 0x6e, 0x3d,
  0xf0, 0x74, 0xec, 0xbb, 0xd4, 0x44, 0x73, 0x3d, 0xe4, 0x53, 0x7a, 0xbd,
  0xb3, 0xd5, 0x25, 0xbd, 0x97, 0x53, 0x93, 0xbd, 0x49, 0x60, 0xc0, 0xbd,
  0xab, 0xf4, 0xb3, 0xbd, 0xd0, 0x29, 0x18, 0x3d, 0x50, 0xc7, 0xdc, 0xbb,
  0xf0, 0xb9, 0xe0, 0x3c, 0xf6, 0xce, 0x8b, 0x3d, 0x64, 0x5b, 0xa6, 0xbd,
  0xec, 0xfb, 0x32, 0x3d, 0x5c, 0x26, 0x08, 0xbd, 0xd8, 0x74, 0x61, 0xbc,
  0x38, 0xb4, 0x3a, 0xbd, 0x09, 0x2f, 0xc9, 0xbd, 0x00, 0x06, 0x30, 0x3d,
  0xe4, 0xf4, 0xb6, 0x3c, 0xcc, 0x81, 0x0f, 0xbd, 0xfe, 0x70, 0x9a, 0xbd,
  0xe0, 0xef, 0x96, 0xbd, 0xe6, 0x81, 0xa7, 0xbd, 0x78, 0xd6, 0xad, 0x3d,
  0x7c, 0x73, 0xc6, 0xbc, 0xae, 0x19, 0x94, 0xbd, 0xa4, 0xd1, 0x3e, 0x3d,
  0x4e, 0x95, 0x8d, 0x3d, 0x70, 0x49, 0xa8, 0xbb, 0x10, 0x4d, 0x30, 0x3d,
  0x5c, 0x87, 0x82, 0x3d, 0x80, 0x36, 0x19, 0x3d, 0x8a, 0xfb, 0xa8, 0x3d,
  0x3c, 0xba, 0x88, 0xbd, 0x4c, 0x81, 0xaa, 0xbc, 0xd2, 0xe7, 0xad, 0x3d,
  0x7f, 0xb4, 0xbe, 0xbd, 0x5d, 0x93, 0x94, 0xbd, 0xd8, 0xb3, 0x6e, 0xbd,
  0xe0, 0xe6, 0x9d, 0xbb, 0x68, 0xb6, 0x90, 0xbd, 0x98, 0x7f, 0xc5, 0xbc,
  0xa4, 0xe6, 0x16, 0x3d, 0xd4, 0x7a, 0xf1, 0xbc, 0xbd, 0x59, 0x58, 0xbd,
  0xb2, 0x45, 0xbd, 0xbd, 0xf1, 0x0f, 0x46, 0xbd, 0x9e, 0x87, 0x87, 0xbd,
  0x76, 0x84, 0x28, 0xbd, 0xd0, 0xcd, 0xaa, 0xbd, 0x9e, 0xc5, 0x89, 0xbd,
  0xe6, 0xae, 0x80, 0xbd, 0x9e, 0xb7, 0xa2, 0xbd, 0x60, 0xb6, 0x9e, 0x3d,
  0xd8, 0x6c, 0xd1, 0xbc, 0x88, 0x9e, 0x06, 0xbc, 0x54, 0x0e, 0x1b, 0x3d,
  0x90, 0x0c, 0xcc, 0x3b, 0x28, 0x49, 0x6c, 0x3d, 0xef, 0x99, 0x60, 0xbd,
  0x44, 0x45, 0x2c, 0x3d, 0x10, 0x3e, 0x51, 0x3d, 0xc0, 0xa7, 0xe2, 0xba,
  0x9c, 0xd6, 0x5e, 0x3d, 0xb4, 0xa4, 0x25, 0x3d, 0x84, 0x4d, 0x5f, 0xbd,
  0xba, 0xc9, 0xa3, 0xbd, 0x6f, 0x85, 0xa2, 0xbd, 0xf8, 0x54, 0x5d, 0x3d,
  0xb0, 0xf3, 0x60, 0x3d, 0x20, 0xaa, 0xa6, 0x3d, 0x30, 0x72, 0x71, 0x3d,
  0x60, 0xa8, 0x01, 0xbb, 0x4c, 0x40, 0x95, 0xbc, 0x3c, 0xdf, 0x78, 0x3d,
  0x08, 0xf7, 0x01, 0xbd, 0x38, 0x2e, 0x90, 0xbd, 0xbb, 0xf8, 0x67, 0xbd,
  0x80, 0x3c, 0x50, 0x3c, 0x6c, 0x0d, 0xc5, 0xbc, 0x4a, 0x72, 0xa0, 0xbd,
  0xbf, 0xb0, 0x3e, 0xbd, 0x74, 0xd1, 0x12, 0x3d, 0x5f, 0x51, 0x3b, 0xbd,
  0xb0, 0x0c, 0x0a, 0xbc, 0x89, 0x90, 0x7c, 0xbd, 0x48, 0xca, 0x66, 0x3d,
  0x18, 0x73, 0x3f, 0x3c, 0xc8, 0x82, 0x88, 0x3d, 0xd0, 0xa7, 0x7b, 0x3d,
  0x20, 0x12, 0x7f, 0x3d, 0xdf, 0xf6, 0xba, 0xbd, 0xc4, 0x93, 0x4e, 0x3d,
  0x44, 0x3c, 0x71, 0x3d, 0xb8, 0x88, 0xfb, 0xbc, 0xe8, 0x97, 0x14, 0x3c,
  0x6c, 0xde, 0x72, 0x3d, 0xf8, 0xcc, 0xc4, 0xbd, 0x34, 0x1f, 0xff, 0xbc,
  0x7c, 0x67, 0x58, 0x3d, 0x60, 0xeb, 0xbf, 0x3d, 0xf1, 0xc5, 0xc3, 0xbd,
  0x88, 0x58, 0xf1, 0x3c, 0x5d, 0x55, 0x98, 0xbd, 0x90, 0x6c, 0x8a, 0x3d,
  0x12, 0xca, 0xc7, 0x3d, 0x87, 0xb4, 0x27, 0xbd, 0xa2, 0xc9, 0xc0, 0x3d,
  0x7c, 0xfa, 0x99, 0xbd, 0xc8, 0x8d, 0xb2, 0x3c, 0xde, 0xc0, 0x59, 0xbd,
  0xf0, 0x0f, 0x2d, 0x3d, 0x90, 0x3c, 0x9b, 0x3b, 0x6e, 0x07, 0xbc, 0x3d,
  0x70, 0x60, 0xaa, 0x3b, 0xa8, 0xed, 0x42, 0x3d, 0x58, 0xf0, 0x12, 0xbd,
  0xe0, 0x46, 0x42, 0x3d, 0xd0, 0xbf, 0x8a, 0x3b, 0x10, 0x3d, 0xcb, 0x3b,
  0xba, 0x48, 0x94, 0x3d, 0xf8, 0xbf, 0xe2, 0x3c, 0x80, 0x80, 0xf0, 0x3c,
  0xf8, 0x18, 0xeb, 0x3c, 0x4e, 0xfd, 0x89, 0x3d, 0x30, 0x4a, 0xa6, 0x3d,
  0x19, 0x40, 0x4b, 0xbd, 0x70, 0xaf, 0x46, 0xbc, 0x64, 0x57, 0xae, 0x3d,
  0x14, 0xaf, 0xb0, 0xbd, 0xc0, 0x11, 0xf6, 0xbb, 0xa0, 0x38, 0xc7, 0xbc,
  0xa8, 0xfb, 0x43, 0x3d, 0xa4, 0x2d, 0x79, 0x3d, 0x2c, 0x20, 0x29, 0x3d,
  0xb8, 0xc2, 0xd0, 0x3c, 0x57, 0xbc, 0xae, 0xbd, 0xec, 0xb6, 0xa5, 0x3c,
  0xac, 0x9e, 0x83, 0x3c, 0x9c, 0x58, 0x34, 0xbd, 0xde, 0xe5, 0x9f, 0x3d,
  0xdc, 0x61, 0xbc, 0x3c, 0x37, 0xee, 0x59, 0xbd, 0x20, 0x3e, 0xf1, 0x3c,
  0x60, 0xc2, 0x44, 0x3b, 0x80, 0x13, 0x56, 0x3d, 0x78, 0x0e, 0x6b, 0x3d,
  0x57, 0x1e, 0xc2, 0xbd, 0x72, 0x00, 0x97, 0x3d, 0x06, 0xd4, 0x0e, 0xbd,
  0x52, 0x6a, 0xcb, 0xbd, 0x79, 0xa5, 0x5f, 0xbd, 0x30, 0x63, 0xca, 0xbb,
  0x4c, 0x67, 0x70, 0x3d, 0x2c, 0xa8, 0xb9, 0xbd, 0xe9, 0x82, 0xac, 0xbd,
  0xfc, 0x85, 0x4b, 0x3d, 0xe0, 0xcd, 0x4b, 0xbc, 0x58, 0xba, 0x08, 0x3d,
  0x64, 0x8d, 0x93, 0xbc, 0xf2, 0xcd, 0xc8, 0xbd, 0xe5, 0x89, 0xbb, 0xbd,
  0x1e, 0xfb, 0xb7, 0x3d, 0x41, 0x29, 0x62, 0xbd, 0x00, 0x8c, 0x49, 0x3d,
  0x08, 0x77, 0x82, 0xbd, 0xa0, 0xd5, 0xb0, 0x3d, 0x35, 0x2a, 0x1d, 0xbd,
  0x70, 0xce, 0x5a, 0x3d, 0x10, 0x1d, 0x18, 0xbd, 0x3c, 0x3b, 0x7e, 0x3d,
  0x19, 0x6d, 0x59, 0xbd, 0xac, 0xd1, 0xc7, 0xbc, 0xee, 0xe2, 0x31, 0xbd,
  0x9c, 0x1d, 0x0e, 0x3d, 0x20, 0xf4, 0xa5, 0x3c, 0xb4, 0x37, 0x6e, 0x3d,
  0x55, 0xd9, 0xa7, 0xbd, 0x11, 0x81, 0x5f, 0xbd, 0xcc, 0x88, 0x04, 0x3d,
  0x58, 0x01, 0xbb, 0x3c, 0xc0, 0xcf, 0x95, 0x3b, 0x8b, 0x71, 0xc6, 0xbd,
  0x6e, 0x68, 0xcb, 0x3d, 0x74, 0x32, 0xa8, 0x3c, 0x95, 0xdb, 0xb7, 0xbd,
  0x1c, 0xd0, 0x8f, 0x3d, 0xc4, 0xb1, 0x9f, 0x3d, 0x48, 0x18, 0xfa, 0x3c,
  0x56, 0xe3, 0x55, 0xbd, 0x12, 0x1c, 0x71, 0xbd, 0xb0, 0xcb, 0x9c, 0x3d,
  0x0c, 0xcb, 0x44, 0x3d, 0xed, 0xe8, 0xaf, 0xbd, 0x30, 0xf1, 0xad, 0x3b,
  0xf0, 0x1f, 0xc8, 0x3d, 0x80, 0x95, 0x18, 0x3c, 0x94, 0xef, 0xb6, 0xbd,
  0x4a, 0xe9, 0xc1, 0x3d, 0x20, 0xaa, 0xab, 0xbb, 0x06, 0x0f, 0xbd, 0x3d,
  0xe6, 0x27, 0xa8, 0x3d, 0xe0, 0x9d, 0x4c, 0xbc, 0xaa, 0x22, 0xa0, 0xbd,
  0xc0, 0xd5, 0xbb, 0x3b, 0x40, 0x29, 0xec, 0x3c, 0x54, 0x28, 0x31, 0xbd,
  0x18, 0x1e, 0x54, 0xbd, 0x70, 0x2a, 0x33, 0x3d, 0xda, 0x70, 0x96, 0x3d,
  0x94, 0x50, 0x79, 0x3d, 0xb0, 0x99, 0x96, 0x3b, 0x9c, 0x56, 0x11, 0xbd,
  0x1a, 0x17, 0x95, 0xbd, 0xf8, 0xd9, 0x61, 0x3d, 0x24, 0xb1, 0x0a, 0x3d,
  0x38, 0x41, 0x57, 0x3d, 0xca, 0xf8, 0xa1, 0xbd, 0x18, 0xe6, 0x66, 0xbc,
  0x9c, 0x28, 0x07, 0xbd, 0x08, 0xff, 0x5c, 0xbd, 0x77, 0x5f, 0x33, 0xbd,
  0xbc, 0x36, 0x09, 0x3d, 0x50, 0x30, 0xfb, 0xbc, 0x64, 0xef, 0x48, 0x3d,
  0x5c, 0x9a, 0x8f, 0xbc, 0xe0, 0xac, 0xe5, 0x3c, 0xc8, 0xa2, 0x0c, 0x3c,
  0x8c, 0x54, 0xa9, 0x3c, 0x58, 0xf2, 0x4d, 0x3d, 0xc2, 0x3f, 0x8b, 0xbd,
  0x04, 0x5e, 0x18, 0x3d, 0xee, 0x61, 0x0b, 0xbd, 0x5c, 0x3e, 0x44, 0x3d,
  0x64, 0x19, 0x29, 0x3d, 0x84, 0x5f, 0xc3, 0xbc, 0x18, 0x08, 0x90, 0x3c,
  0x80, 0x82, 0x0e, 0x3d, 0xb6, 0x89, 0xba, 0x3d, 0x40, 0xe5, 0x22, 0x3b,
  0x00, 0x50, 0xec, 0x39, 0x3c, 0x20, 0x07, 0xbd, 0xf8, 0x8b, 0x65, 0xbd,
  0x1b, 0x36, 0x59, 0xbd, 0x80, 0xe3, 0x4d, 0x3c, 0x70, 0xa6, 0x92, 0x3b,
  0x92, 0x1d, 0xad, 0xbd, 0x3c, 0xad, 0x15, 0x3d, 0x82, 0x08, 0x9e, 0xbd,
  0xb2, 0x5b, 0x37, 0xbd, 0xac, 0x7a, 0x33, 0xbd, 0xd9, 0x7b, 0x72, 0xbd,
  0x7f, 0xe8, 0x92, 0xbd, 0xb4, 0x5f, 0xc4, 0x3c, 0xea, 0xcf, 0xac, 0x3d,
  0x60, 0x52, 0x5e, 0xbd, 0xe8, 0x16, 0xd9, 0xbc, 0x90, 0x27, 0x5a, 0xbc,
  0xec, 0xf0, 0xc5, 0x3c, 0x08, 0xe7, 0x69, 0x3d, 0x00, 0x09, 0xb4, 0xbd,
  0xa4, 0xad, 0xbb, 0xbd, 0x90, 0x3a, 0x55, 0xbc, 0x9e, 0x64, 0xa4, 0x3d,
  0x24, 0xe7, 0x3b, 0x3d, 0x74, 0xa8, 0x95, 0x3d, 0xbc, 0x15, 0x91, 0x3d,
  0x14, 0xb9, 0xa5, 0xbd, 0xa0, 0x57, 0xe0, 0x3c, 0x94, 0x2d, 0xc7, 0x3d,
  0xcc, 0x6d, 0x7f, 0x3d, 0x98, 0x75, 0xa5, 0x3c, 0x1c, 0x2f, 0x13, 0xbd,
  0x1e, 0xec, 0xb6, 0xbd, 0x88, 0xc2, 0xc1, 0xbd, 0x79, 0x33, 0xc0, 0xbd,
  0xec, 0x56, 0x75, 0x3d, 0x02, 0x27, 0x3e, 0xbd, 0x44, 0x12, 0x9d, 0x3d,
  0x48, 0x05, 0x4c, 0xbc, 0xf2, 0x2a, 0xbc, 0x3d, 0xa7, 0x9e, 0x9a, 0xbd,
  0xf0, 0xe5, 0xe9, 0xbc, 0xc0, 0x8f, 0x5b, 0x3d, 0xec, 0xcd, 0xb0, 0x3c,
  0xf8, 0xfa, 0x8e, 0x3d, 0x00, 0x3f, 0xdf, 0x39, 0x1d, 0x37, 0x45, 0xbd,
  0x9e, 0x49, 0xa8, 0x3d, 0xf0, 0x58, 0x2b, 0x3c, 0xe0, 0xa3, 0xa5, 0xbb,
  0x80, 0x77, 0x84, 0x3c, 0x88, 0x71, 0x93, 0x3d, 0xb8, 0x2c, 0xfd, 0x3c,
  0x98, 0x57, 0x5b, 0x3d, 0x90, 0x41, 0xf3, 0x3b, 0x28, 0x40, 0x3f, 0xbc,
  0xa2, 0xe5, 0x9e, 0x3d, 0x68, 0x26, 0xa7, 0x3c, 0x50, 0x49, 0x3e, 0x3d,
  0xd4, 0xe5, 0xa7, 0xbd, 0x1b, 0xc5, 0x7e, 0xbd, 0xe0, 0x83, 0xa4, 0x3d,
  0x1c, 0x8b, 0xad, 0xbc, 0x40, 0x74, 0x90, 0xbd, 0xc8, 0x9b, 0x6d, 0x3c,
  0xe3, 0xe4, 0xc4, 0xbd, 0xf8, 0x01, 0xc4, 0xbd, 0xc0, 0x26, 0x0a, 0x3b,
  0xe0, 0xce, 0xf3, 0x3b, 0x20, 0x40, 0x9f, 0x3c, 0xf0, 0x56, 0x88, 0xbd,
  0x34, 0x34, 0xa9, 0x3c, 0x34, 0x2e, 0xaf, 0xbc, 0x28, 0x0a, 0xbc, 0x3c,
  0x7c, 0x46, 0x22, 0x3d, 0xb4, 0xc7, 0xa1, 0xbd, 0x85, 0xb3, 0x47, 0xbd,
  0xa8, 0x3d, 0x47, 0x3d, 0x84, 0x8e, 0x86, 0x3d, 0x74, 0x05, 0x15, 0x3d,
  0x5e, 0x54, 0xca, 0x3d, 0x76, 0xc0, 0xbd, 0x3d, 0x08, 0xab, 0xca, 0x3d,
  0x64, 0x30, 0xb7, 0x3c, 0x41, 0x37, 0x30, 0xbd, 0xd8, 0x4b, 0x47, 0x3d,
  0x28, 0xc8, 0x3e, 0x3c, 0xb0, 0xfe, 0xf6, 0xbc, 0x04, 0xdd, 0x83, 0x3c,
  0x19, 0x90, 0x29, 0xbd, 0x88, 0x84, 0xf5, 0x3c, 0x60, 0x0e, 0x7c, 0xbc,
  0x40, 0x7f, 0x81, 0xbb, 0x08, 0xc1, 0xae, 0x3c, 0x06, 0xc2, 0x04, 0xbd,
  0x80, 0x33, 0x02, 0x3d, 0xfc, 0xd7, 0x8f, 0xbd, 0x72, 0x05, 0x8a, 0xbd,
  0xb3, 0x72, 0x9a, 0xbd, 0xd3, 0x5b, 0xbb, 0xbd, 0x60, 0xc9, 0x82, 0x3b,
  0x0c, 0x85, 0xa3, 0xbc, 0x0c, 0x85, 0x94, 0xbd, 0x53, 0x0d, 0x1f, 0xbd,
  0xad, 0x4e, 0x8f, 0xbd, 0x24, 0x72, 0x6c, 0x3d, 0x84, 0x78, 0x7d, 0x3d,
  0x0a, 0x4a, 0xaa, 0xbd, 0xf2, 0x12, 0xc6, 0xbd, 0xfb, 0xf9, 0xbd, 0xbd,
  0x20, 0xa0, 0xe5, 0x3c, 0x60, 0x50, 0x5a, 0x3b, 0xc4, 0x2c, 0xa8, 0xbd,
  0xb0, 0x2d, 0xd8, 0xbc, 0xc6, 0x79, 0x89, 0x3d, 0x20, 0x6c, 0x58, 0x3d,
  0x80, 0x78, 0x11, 0x3d, 0x88, 0xc9, 0x98, 0x3c, 0x33, 0xe5, 0x7f, 0xbd,
  0x18, 0xcd, 0x44, 0xbd, 0x3a, 0x72, 0xa5, 0x3d, 0x29, 0x18, 0xc8, 0xbd,
  0x98, 0x5d, 0xff, 0x3c, 0x7c, 0xf1, 0x9b, 0x3d, 0x9b, 0x84, 0x1e, 0xbd,
  0x3c, 0x38, 0x42, 0x3d, 0xa0, 0x17, 0xaf, 0xbd, 0x30, 0x5d, 0x39, 0xbc,
  0x78, 0x74, 0x9d, 0x3c, 0x40, 0xfb, 0xa0, 0xbc, 0x46, 0x3c, 0x89, 0xbd,
  0x04, 0x69, 0x2e, 0x3d, 0xa6, 0x8c, 0xc1, 0x3d, 0x65, 0xec, 0xc7, 0xbd,
  0x12, 0x48, 0xaa, 0xbd, 0x10, 0x79, 0x94, 0x3d, 0x64, 0x24, 0xb8, 0xbd,
  0xdc, 0xd3, 0x8f, 0xbd, 0x40, 0x13, 0x18, 0x3b, 0x10, 0x7d, 0x0d, 0x3c,
  0x6e, 0xea, 0x85, 0xbd, 0x6a, 0xd3, 0x07, 0xbd, 0xd0, 0xec, 0xaa, 0x3d,
  0x10, 0xaa, 0x93, 0x3d, 0xda, 0xa7, 0x72, 0xbd, 0xa2, 0x44, 0xaf, 0x3d,
  0x26, 0xdf, 0xaf, 0xbd, 0x06, 0xaf, 0x8e, 0x3d, 0x78, 0x05, 0x84, 0x3d,
  0x47, 0x48, 0x20, 0xbd, 0xa0, 0x94, 0x2b, 0x3c, 0xf0, 0x44, 0xe4, 0xbc,
  0xfc, 0xb1, 0x5d, 0x3d, 0x3d, 0xee, 0xa7, 0xbd, 0xc8, 0xb1, 0x58, 0xbc,
  0xc0, 0xf6, 0x83, 0x3d, 0x44, 0x57, 0x41, 0xbd, 0x64, 0x87, 0xa7, 0xbd,
  0x80, 0x02, 0x73, 0x3d, 0x47, 0x71, 0xb5, 0xbd, 0xe0, 0xf0, 0xbf, 0x3b,
  0x04, 0x81, 0x9e, 0x3c, 0x50, 0x19, 0x9a, 0xbb, 0x38, 0xf2, 0xb7, 0x3d,
  0x7c, 0x81, 0x94, 0x3d, 0xb8, 0xe5, 0xbd, 0x3c, 0x20, 0x35, 0xa0, 0x3b,
  0xda, 0xc4, 0x8b, 0x3d, 0xb8, 0x4f, 0x30, 0x3d, 0xc0, 0x1e, 0xcb, 0x3b,
  0xea, 0xac, 0x80, 0x3d, 0x18, 0xaa, 0x0a, 0x3d, 0xaa, 0xa8, 0x95, 0xbd,
  0x70, 0xb6, 0x34, 0x3c, 0x4f, 0x2f, 0xbb, 0xbd, 0x00, 0xc7, 0xb0, 0x3c,
  0xb0, 0x45, 0x59, 0x3c, 0x48, 0xfe, 0xc3, 0xbd, 0xe8, 0x22, 0x74, 0xbc,
  0xf0, 0xf7, 0xdc, 0xbb, 0x58, 0x7a, 0x9a, 0x3c, 0xf8, 0x23, 0x33, 0x3d,
  0xc9, 0xec, 0xc5, 0xbd, 0x14, 0x31, 0xd9, 0xbc, 0x3f, 0xd5, 0x8d, 0xbd,
  0xf0, 0xfe, 0x5c, 0x3d, 0x34, 0x8c, 0x3a, 0xbd, 0x20, 0x02, 0xae, 0x3d,
  0x08, 0x9e, 0x74, 0xbd, 0xd5, 0xf2, 0x70, 0xbd, 0x7e, 0x9a, 0x80, 0x3d,
  0x9e, 0xb2, 0xa4, 0x3d, 0xe2, 0x10, 0xbd, 0x3d, 0x96, 0x48, 0x80, 0xbd,
  0xb8, 0x1b, 0x89, 0x3d, 0x10, 0x7f, 0xdd, 0x3c, 0x80, 0x1c, 0x3e, 0xbb,
  0x70, 0x81, 0xc9, 0x3d, 0xc6, 0x05, 0x93, 0x3d, 0xe0, 0xd0, 0x2c, 0x3c,
  0x56, 0x20, 0x6e, 0xbd, 0x12, 0xfc, 0xb3, 0xbd, 0xb5, 0x12, 0x6e, 0xbd,
  0xa8, 0xfa, 0xd7, 0xbc, 0xa0, 0xab, 0x53, 0xbd, 0x18, 0x7d, 0x63, 0x3c,
  0xc0, 0x7c, 0xb3, 0x3a, 0x50, 0x48, 0x9c, 0x3d, 0xe0, 0x26, 0x0f, 0xbb,
  0x2f, 0xd4, 0x88, 0xbd, 0x3a, 0x1c, 0xb3, 0xbd, 0x21, 0xe5, 0xc8, 0xbd,
  0x2c, 0xb5, 0x79, 0xbd, 0xf8, 0xb5, 0x0e, 0xbd, 0xe8, 0xbe, 0x2f, 0xbd,
  0xaa, 0xdb, 0x97, 0x3d, 0x42, 0x44, 0x25, 0xbd, 0x5d, 0x08, 0x87, 0xbd,
  0x60, 0x68, 0x23, 0xbb, 0xd9, 0xef, 0xc5, 0xbd, 0x2d, 0xab, 0x54, 0xbd,
  0x58, 0xdd, 0x4b, 0x3d, 0xa0, 0x14, 0x5f, 0x3d, 0x8c, 0xf6, 0xc7, 0xbd,
  0xe8, 0x18, 0xbe, 0xbc, 0x18, 0x9d, 0xe1, 0xbc, 0x5e, 0x79, 0xcb, 0x3d,
  0xae, 0x39, 0xb0, 0x3d, 0xcc, 0xc8, 0x81, 0xbd, 0xfa, 0x1b, 0xc0, 0x3d,
  0x3c, 0xb5, 0xd4, 0xbc, 0xc0, 0x97, 0x4b, 0xbc, 0x28, 0x17, 0xc0, 0xbc,
  0xdf, 0x20, 0x19, 0xbd, 0x90, 0x6b, 0xa3, 0x3b, 0x58, 0x1c, 0x09, 0xbd,
  0x24, 0x32, 0xa7, 0x3d, 0x02, 0x40, 0xb8, 0x3d, 0x00, 0x75, 0x50, 0x3c,
  0xe0, 0x40, 0xed, 0xbc, 0xe0, 0xc1, 0xdb, 0x3c, 0xe8, 0xc4, 0x61, 0x3d,
  0xb0, 0xbc, 0x48, 0x3d, 0x2a, 0x95, 0x16, 0xbd, 0x54, 0x66, 0xe0, 0xbc,
  0x80, 0x7e, 0xf8, 0xbb, 0x9c, 0x49, 0xcb, 0xbc, 0x50, 0x46, 0xd9, 0x3b,
  0x48, 0xf2, 0xa5, 0x3c, 0xd4, 0x43, 0xe7, 0xbc, 0xbe, 0x5f, 0x91, 0xbd,
  0x30, 0x07, 0x57, 0x3d, 0xf0, 0x7f, 0x13, 0xbc, 0xec, 0x15, 0x53, 0xbd,
  0xd8, 0x63, 0x64, 0xbc, 0xe8, 0xee, 0x63, 0xbc, 0x00, 0x8e, 0x18, 0x3a,
  0x83, 0xc1, 0x26, 0xbd, 0x90, 0xd8, 0xa5, 0xbd, 0xe4, 0xee, 0xda, 0xbc,
  0xed, 0x35, 0x9a, 0xbd, 0xe7, 0x13, 0x8d, 0xbd, 0x8c, 0xd1, 0x04, 0x3d,
  0x60, 0x3f, 0x07, 0xbc, 0x68, 0xf9, 0xb7, 0xbd, 0x2a, 0xe3, 0xa6, 0x3d,
  0x2f, 0x05, 0x5e, 0xbd, 0x6c, 0x1e, 0x27, 0x3d, 0xa0, 0xd8, 0xd2, 0xbc,
  0x30, 0x2b, 0x5a, 0xbd, 0x6e, 0x52, 0xa8, 0xbd, 0xac, 0xd9, 0xb3, 0xbd,
  0xb5, 0x23, 0x2a, 0xbd, 0xc0, 0xe9, 0xc9, 0xbd, 0x04, 0xb3, 0x91, 0xbd,
  0xec, 0xaf, 0xb1, 0xbc, 0x00, 0xa3, 0x9d, 0xbc, 0x46, 0xf9, 0x86, 0xbd,
  0x60, 0x30, 0xf0, 0x3b, 0xa0, 0x04, 0x53, 0x3c, 0x45, 0xd2, 0x99, 0xbd,
  0xe4, 0x1e, 0xbb, 0x3c, 0x32, 0x77, 0xc0, 0x3d, 0xcd, 0x67, 0x8b, 0xbd,
  0x0c, 0xd7, 0x4b, 0x3d, 0xd0, 0x88, 0xa5, 0x3d, 0x78, 0xc5, 0x2b, 0x3c,
  0x68, 0x57, 0xb9, 0xbd, 0x18, 0x79, 0x6f, 0xbc, 0x74, 0x8a, 0x53, 0x3d,
  0x72, 0x73, 0x85, 0x3d, 0x1c, 0x39, 0xc9, 0x3d, 0xa8, 0xa2, 0x60, 0xbd,
  0x2c, 0xb2, 0x14, 0xbd, 0xe0, 0xf3, 0xa3, 0xbc, 0xc4, 0x7a, 0x93, 0xbc,
  0x10, 0xc8, 0xf4, 0x3c, 0x58, 0x54, 0x68, 0x3d, 0xa0, 0x63, 0x34, 0x3d,
  0x9c, 0xf4, 0x9c, 0x3d, 0xe4, 0x03, 0x6c, 0x3d, 0x76, 0x9a, 0x89, 0x3d,
  0xf4, 0x93, 0x08, 0x3d, 0xe8, 0xc1, 0xbd, 0x3d, 0x40, 0x71, 0x0a, 0xbc,
  0x50, 0xd1, 0xeb, 0xbb, 0x93, 0x20, 0x8c, 0xbd, 0xcf, 0xae, 0xaf, 0xbd,
  0x20, 0x79, 0x25, 0xbc, 0x0d, 0xb9, 0x3b, 0xbd, 0x9c, 0x12, 0xc6, 0xbd,
  0x50, 0x41, 0x3e, 0xbc, 0x80, 0xbf, 0x73, 0x3d, 0x16, 0x86, 0xb2, 0x3d,
  0xda, 0x0a, 0x88, 0x3d, 0x60, 0xc0, 0x7e, 0x3d, 0x00, 0x55, 0x03, 0xba,
  0xae, 0x93, 0xab, 0x3d, 0x20, 0xf9, 0x3f, 0x3d, 0x4c, 0x8c, 0x8a, 0x3d,
  0x0a, 0x63, 0x9f, 0xbd, 0x6c, 0xb3, 0x90, 0xbc, 0x35, 0x57, 0x45, 0xbd,
  0x30, 0x63, 0x90, 0x3c, 0x92, 0xc4, 0x91, 0xbd, 0xd0, 0xd8, 0xbb, 0x3c,
  0x6d, 0x98, 0x73, 0xbd, 0x52, 0x19, 0x8f, 0x3d, 0x07, 0xe6, 0x47, 0xbd,
  0x88, 0xdb, 0xea, 0x3c, 0x00, 0xd1, 0xe1, 0x3b, 0x36, 0xcd, 0x8d, 0x3d,
  0xda, 0x9e, 0x99, 0xbd, 0xfa, 0x4d, 0x89, 0xbd, 0xe4, 0xca, 0x95, 0x3d,
  0x00, 0x6b, 0xd5, 0xba, 0x4c, 0xb1, 0x6e, 0x3d, 0x56, 0x40, 0x90, 0xbd,
  0xca, 0x84, 0x80, 0xbd, 0x58, 0x60, 0x95, 0x3c, 0x34, 0x6b, 0xb3, 0x3d,
  0x5e, 0x1d, 0x82, 0x3d, 0x8b, 0x48, 0x4b, 0xbd, 0x38, 0x56, 0x4d, 0x3d,
  0xac, 0x2d, 0xac, 0x3d, 0x30, 0x55, 0x49, 0x3d, 0xc3, 0xb1, 0x43, 0xbd,
  0x0e, 0x13, 0x99, 0xbd, 0x40, 0x58, 0x74, 0x3c, 0xa8, 0x64, 0x23, 0x3d,
  0x90, 0x41, 0x9a, 0xbd, 0x6c, 0x98, 0x85, 0x3d, 0x24, 0xcd, 0xc4, 0x3c,
  0xf8, 0x17, 0x70, 0x3c, 0xc8, 0xf8, 0xe8, 0x3c, 0x23, 0x92, 0x8a, 0xbd,
  0x6a, 0xe3, 0x8a, 0x3d, 0x78, 0x3e, 0x94, 0xbd, 0xf0, 0x12, 0x78, 0xbd,
  0xf4, 0xfe, 0x82, 0xbc, 0xd4, 0xd8, 0xaa, 0x3d, 0x40, 0xe5, 0x7e, 0x3c,
  0x64, 0xe2, 0xa6, 0xbd, 0xc4, 0x40, 0x8d, 0x3c, 0x8c, 0xab, 0xe1, 0xbc,
  0x30, 0x34, 0x93, 0xbc, 0x51, 0x1c, 0x90, 0xbd, 0x28, 0x04, 0x99, 0x3d,
  0xa4, 0x4d, 0x9a, 0xbc, 0x2e, 0x57, 0xb3, 0x3d, 0xac, 0x08, 0x4f, 0x3d,
  0x00, 0x65, 0xd7, 0x39, 0x57, 0x43, 0xa3, 0xbd, 0x26, 0x38, 0xc4, 0xbd,
  0x80, 0x29, 0xc5, 0x3d, 0x64, 0x31, 0xb5, 0x3d, 0xef, 0x9f, 0xaf, 0xbd,
  0x98, 0xfb, 0x0d, 0xbd, 0xe8, 0x53, 0xbf, 0xbc, 0x56, 0x6c, 0x8a, 0xbd,
  0x80, 0x5a, 0x66, 0xbb, 0xcc, 0xfa, 0x8d, 0x3c, 0xaa, 0x0e, 0xc4, 0x3d,
  0xe2, 0x24, 0xaf, 0x3d, 0xa0, 0xf5, 0x40, 0x3b, 0x16, 0x28, 0x9e, 0x3d,
  0xde, 0x54, 0x81, 0x3d, 0xe3, 0x69, 0xca, 0xbd, 0xa0, 0xb8, 0x17, 0xbd,
  0x86, 0x2e, 0x50, 0xbd, 0x4c, 0x79, 0xd1, 0xbc, 0x3c, 0xd1, 0xa5, 0xbc,
  0x14, 0x44, 0x8e, 0x3d, 0x10, 0x0e, 0x80, 0x3c, 0x76, 0xc4, 0x80, 0x3d,
  0x36, 0xf0, 0x84, 0x3d, 0x60, 0xa1, 0x69, 0xbc, 0x54, 0xf4, 0x8d, 0xbd,
  0xd0, 0xb2, 0x80, 0x3c, 0xb4, 0x1a, 0x89, 0xbc, 0x21, 0xcd, 0xa3, 0xbd,
  0xd8, 0x03, 0xcd, 0xbc, 0x0c, 0x45, 0x92, 0xbc, 0x4c, 0x4c, 0x99, 0x3c,
  0xb5, 0x4e, 0xc7, 0xbd, 0x66, 0xb8, 0xaf, 0x3d, 0x34, 0xe9, 0xf5, 0xbc,
  0xcd, 0x03, 0x22, 0xbd, 0xf4, 0xf5, 0x7a, 0xbd, 0x68, 0x43, 0x78, 0x3c,
  0x3a, 0x19, 0x09, 0xbd, 0xa4, 0x36, 0xc4, 0x3c, 0x6d, 0x42, 0xac, 0xbd,
  0x40, 0xee, 0xc9, 0xba, 0xfc, 0xdf, 0x88, 0xbd, 0x41, 0xf9, 0x85, 0xbd,
  0x25, 0xc5, 0x9c, 0xbd, 0x76, 0x14, 0x88, 0x3d, 0xff, 0x8e, 0xab, 0xbd,
  0x47, 0x02, 0x24, 0xbd, 0x90, 0x42, 0xc6, 0x3d, 0x30, 0x50, 0x79, 0x3d,
  0xec, 0x4b, 0x0d, 0x3d, 0x60, 0x1e, 0x6b, 0x3d, 0xc0, 0x67, 0xaa, 0x3a,
  0xc8, 0x84, 0xb8, 0x3d, 0x5c, 0xdb, 0xa0, 0xbc, 0xd0, 0xab, 0x68, 0x3d,
  0x68, 0x54, 0x50, 0x3c, 0x31, 0xf8, 0x20, 0xbd, 0xec, 0xc8, 0x84, 0x3c,
  0x76, 0x60, 0x68, 0xbd, 0xe0, 0xa7, 0x8b, 0x3c, 0xa2, 0x03, 0x99, 0x3d,
  0xa0, 0x10, 0x5d, 0x3d, 0x68, 0xd2, 0x12, 0x3c, 0x81, 0x29, 0x2e, 0xbd,
  0x65, 0x01, 0x6c, 0xbd, 0xca, 0xa0, 0xb7, 0xbd, 0xd0, 0xe9, 0x84, 0x3c,
  0xb8, 0xac, 0x33, 0xbc, 0xe0, 0x0a, 0xe6, 0x3c, 0xd0, 0x9c, 0x89, 0x3c,
  0x75, 0xbf, 0x6e, 0xbd, 0x2c, 0x8c, 0x3e, 0x3d, 0xfc, 0xed, 0x69, 0x3d,
  0x80, 0x6a, 0xb0, 0x3a, 0x0e, 0x5e, 0xa7, 0x3d, 0x8c, 0x03, 0x33, 0xbd,
  0xc0, 0xbb, 0x8e, 0x3c, 0xf4, 0xc0, 0xa0, 0x3d, 0x44, 0xa2, 0x01, 0x3d,
  0x36, 0x19, 0x92, 0x3d, 0x7d, 0x34, 0x4a, 0xbd, 0x18, 0xfe, 0x70, 0x3d,
  0x0c, 0x14, 0x66, 0x3d, 0xdb, 0x4b, 0x85, 0xbd, 0xac, 0x0f, 0x2b, 0x3d,
  0x7e, 0x9a, 0xa6, 0xbd, 0x78, 0x14, 0x0c, 0xbc, 0xa8, 0xbc, 0x7f, 0x3d,
  0x9b, 0x4b, 0xcc, 0xbc, 0x8b, 0xc9, 0x74, 0xbd, 0xba, 0xb5, 0x1a, 0xbc,
  0x74, 0x67, 0x6b, 0xbd, 0x04, 0xc4, 0x45, 0x3d, 0x41, 0x7b, 0x43, 0x3b,
  0xe7, 0x26, 0x7e, 0x3c, 0x36, 0x91, 0xaa, 0xba, 0x61, 0x00, 0x6d, 0x3d,
  0xc6, 0xa9, 0xca, 0xbc, 0xa7, 0x82, 0x44, 0xbd, 0x54, 0x6a, 0x5c, 0xbd,
  0x41, 0x4a, 0xa2, 0xbd, 0xbf, 0x17, 0xab, 0xbd, 0x2e, 0xad, 0xb9, 0xbd,
  0xc3, 0x7a, 0xc0, 0x3d, 0x09, 0x53, 0xc3, 0xbd, 0xbe, 0x54, 0x9b, 0x3c,
  0x5f, 0x98, 0xa1, 0xbc, 0xa5, 0xeb, 0x08, 0x3b, 0xb4, 0x15, 0xac, 0x3d,
  0x40, 0xd0, 0x5c, 0xbd, 0xa8, 0xaf, 0xf9, 0xbb, 0x54, 0xa0, 0x64, 0xbd,
  0xbc, 0x81, 0x81, 0xbd, 0x32, 0xe6, 0xfb, 0x3b, 0x93, 0x78, 0x22, 0x3d,
  0x3d, 0xc4, 0x28, 0x3d, 0x32, 0x29, 0x89, 0x3c, 0xab, 0x3a, 0xba, 0x3d,
  0x0a, 0x2e, 0x01, 0xbc, 0xca, 0xed, 0x8d, 0xbc, 0x70, 0x4b, 0x9a, 0x3d,
  0xfb, 0xd5, 0xa8, 0x3d, 0xd4, 0x7f, 0xa5, 0xbc, 0xe9, 0x9c, 0x29, 0xbd,
  0xa6, 0x51, 0x33, 0xbb, 0x64, 0x6a, 0x90, 0x3d, 0x86, 0x17, 0x49, 0xbd,
  0xfa, 0xb4, 0xa3, 0x3d, 0xf9, 0xa6, 0x98, 0xbd, 0x6d, 0x40, 0xae, 0x3d,
  0x9b, 0x3a, 0xd3, 0x3c, 0xe2, 0x25, 0xc3, 0x3d, 0xad, 0x71, 0x47, 0xbd,
  0x93, 0x87, 0x76, 0xbd, 0x44, 0xfe, 0x6e, 0xbd, 0x52, 0x10, 0x0a, 0xbd,
  0x88, 0x8c, 0x9d, 0xbd, 0xd7, 0xbc, 0x11, 0xbd, 0x33, 0xb2, 0x74, 0x3d,
  0xcc, 0x76, 0x15, 0xbd, 0xe2, 0xda, 0x5a, 0xbd, 0xfa, 0x3d, 0x8a, 0x3d,
  0x1b, 0x47, 0xf7, 0xbc, 0x55, 0x9e, 0x50, 0x3d, 0xc0, 0x9f, 0x70, 0x3d,
  0x65, 0xca, 0xc3, 0xbd, 0x03, 0xbd, 0x0d, 0x3d, 0x0e, 0x73, 0xa8, 0xbc,
  0xff, 0xed, 0x11, 0x3c, 0x8a, 0xd2, 0xb3, 0x3d, 0xf9, 0xbb, 0xbc, 0x3d,
  0x00, 0x56, 0xca, 0xbd, 0x0a, 0xa8, 0x86, 0xbd, 0xdc, 0xc8, 0xa9, 0x3c,
  0x5d, 0x93, 0x48, 0x3d, 0x7c, 0x03, 0x85, 0x3d, 0x8e, 0xc0, 0x8c, 0xbb,
  0x5a, 0xfd, 0x55, 0xbd, 0x96, 0x4e, 0x26, 0xbd, 0x8c, 0x4b, 0xc9, 0xbd,
  0xda, 0x71, 0x9f, 0xbd, 0x7f, 0x42, 0xbb, 0x3d, 0x0f, 0x73, 0x47, 0x3d,
  0xd3, 0x6e, 0x87, 0xbd, 0x54, 0x22, 0xb8, 0x3c, 0x28, 0x63, 0x3c, 0x3d,
  0xa8, 0xba, 0xe1, 0xbc, 0x3d, 0xe0, 0x51, 0x3b, 0x9e, 0xd2, 0xfa, 0x3c,
  0x36, 0xd2, 0xaa, 0x3d, 0x60, 0xbb, 0x09, 0xbd, 0xa5, 0x5d, 0x93, 0x3d,
  0x1c, 0x17, 0x22, 0x3d, 0x5b, 0xb4, 0xb3, 0xbd, 0x0a, 0x91, 0x8e, 0x3d,
  0xc6, 0x8a, 0xd0, 0xbc, 0x17, 0xd0, 0xb1, 0x3d, 0x6b, 0x44, 0xbb, 0x3c,
  0xe4, 0x6d, 0x9b, 0x3c, 0xd4, 0xe3, 0x1f, 0x3d, 0xb4, 0xe7, 0xb0, 0xbc,
  0x8f, 0x09, 0x6f, 0x3d, 0x5c, 0x34, 0x8b, 0xbd, 0x91, 0xfd, 0x9b, 0x3d,
  0x4c, 0x29, 0x94, 0xbd, 0x46, 0x27, 0xb1, 0xbd, 0xe2, 0xf1, 0xa4, 0x3c,
  0x18, 0xff, 0x65, 0xbd, 0xc0, 0x2e, 0x52, 0xbc, 0x0b, 0x77, 0x42, 0xbd,
  0x2a, 0x43, 0x12, 0x3d, 0xd8, 0xf0, 0x3e, 0x3d, 0x8c, 0x73, 0x39, 0x3d,
  0x2e, 0x03, 0xc3, 0x3d, 0x53, 0x9f, 0xbd, 0xbc, 0x1e, 0xa5, 0x42, 0xbd,
  0x3c, 0x6d, 0xf3, 0x3c, 0xe7, 0xb5, 0x76, 0x3d, 0x24, 0xa2, 0x6f, 0xbb,
  0x28, 0xbf, 0x90, 0x3c, 0x88, 0xc0, 0xb9, 0x3d, 0x75, 0xa2, 0x80, 0x3d,
  0x61, 0x95, 0x8a, 0x3d, 0x3f, 0xf2, 0xaf, 0xbd, 0x02, 0x95, 0x78, 0xbc,
  0x42, 0xf7, 0x9b, 0x3d, 0x21, 0xc2, 0x50, 0x3c, 0x05, 0x3f, 0xf6, 0x3b,
  0xd6, 0x1e, 0x26, 0x3d, 0x44, 0x2e, 0xb5, 0xbc, 0x27, 0x28, 0x42, 0xbc,
  0x89, 0xa1, 0x2d, 0x3b, 0x17, 0xf3, 0x42, 0xbd, 0x7d, 0x38, 0x9a, 0xbd,
  0x15, 0xa6, 0xb2, 0x3c, 0x06, 0xfd, 0x8e, 0x3d, 0xf5, 0xc9, 0xb0, 0xbd,
  0xf4, 0xe3, 0x56, 0x3d, 0x3d, 0x13, 0xb7, 0x3d, 0xab, 0x1c, 0x22, 0xbd,
  0xa4, 0x49, 0x2f, 0x3d, 0xf8, 0x40, 0xe0, 0x3c, 0xe9, 0x0e, 0x90, 0xbd,
  0x0a, 0x19, 0x26, 0x3d, 0x3c, 0xf3, 0x87, 0xbd, 0x91, 0x46, 0x82, 0xbd,
  0x7f, 0xfc, 0xc3, 0xbd, 0x00, 0x8a, 0x15, 0xbd, 0xc6, 0x65, 0x7f, 0x3b,
  0x2c, 0x58, 0x53, 0xbd, 0xee, 0xe2, 0x9d, 0xbd, 0xea, 0x05, 0x47, 0x3d,
  0xec, 0xf8, 0x46, 0x3d, 0x49, 0x2b, 0x6e, 0xbc, 0xc8, 0x73, 0x76, 0xbd,
  0x4c, 0xaf, 0xa8, 0x3d, 0x21, 0x13, 0x53, 0x3d, 0xbc, 0xbe, 0x59, 0x3a,
  0xa7, 0x00, 0xb1, 0xbd, 0xc1, 0x38, 0x7a, 0x3d, 0x30, 0xa2, 0x53, 0x3d,
  0x36, 0x17, 0x1b, 0xbc, 0xa9, 0x4a, 0x09, 0x3d, 0x94, 0xfd, 0x87, 0x3d,
  0x9a, 0x71, 0x4e, 0x3d, 0x6d, 0xa3, 0xa9, 0xbd, 0x93, 0x82, 0xd6, 0xbc,
  0xc7, 0xc9, 0x86, 0x3d, 0xd1, 0x0d, 0xa4, 0x3d, 0x96, 0xbc, 0xfb, 0x3c,
  0x4b, 0x70, 0xc1, 0xbd, 0xe9, 0x16, 0xa4, 0xbd, 0x7e, 0x9f, 0x67, 0x3d,
  0xe5, 0xb0, 0x2a, 0x3d, 0x43, 0xdc, 0x25, 0xbd, 0xf6, 0xc8, 0xab, 0x3d,
  0xcd, 0xbd, 0xee, 0xbc, 0xc5, 0xa3, 0x7e, 0xbd, 0x9c, 0xe6, 0xb9, 0xbd,
  0x62, 0x3e, 0xc3, 0x3d, 0xc6, 0x1a, 0xfa, 0x3c, 0x23, 0x23, 0xa7, 0xbd,
  0xcf, 0xd2, 0x82, 0xbd, 0x91, 0x02, 0xc9, 0xbd, 0x75, 0x0c, 0x2e, 0x3c,
  0xf6, 0x43, 0x9b, 0xbd, 0x2e, 0x28, 0x60, 0x3d, 0xf1, 0x1c, 0x2f, 0xbd,
  0xb4, 0xa8, 0xb3, 0xbd, 0xe6, 0xd9, 0x3d, 0x3d, 0x36, 0xf5, 0xb7, 0xbc,
  0x46, 0x15, 0x88, 0x3d, 0xbc, 0xaf, 0xa0, 0x3d, 0x3b, 0xa2, 0xf1, 0xbc,
  0x5b, 0xdf, 0xb6, 0x3d, 0xd6, 0x7c, 0x2e, 0xbc, 0x91, 0xee, 0xc9, 0xbd,
  0xb5, 0xa8, 0xad, 0xbd, 0x77, 0xda, 0x9b, 0xbd, 0x4c, 0x07, 0xc3, 0x3d,
  0x3d, 0x17, 0x93, 0xbc, 0xa8, 0x5f, 0xa3, 0xbd, 0x2c, 0x15, 0xbb, 0xbd,
  0x74, 0xfc, 0x56, 0x3d, 0x33, 0x50, 0x71, 0xbc, 0x10, 0x07, 0x60, 0xbd,
  0x50, 0xa8, 0x99, 0x3d, 0x1e, 0x16, 0xce, 0xbd, 0x00, 0x8a, 0x2c, 0x3d,
  0x26, 0x10, 0x0b, 0x3d, 0x6d, 0xcc, 0x91, 0xbd, 0x7b, 0x8d, 0x29, 0x3d,
  0x2f, 0x34, 0xd8, 0xbc, 0x12, 0xfc, 0x26, 0x3d, 0x90, 0x0d, 0x94, 0xbd,
  0x20, 0xf2, 0x9d, 0xbd, 0x6b, 0xdf, 0x81, 0xbd, 0x97, 0x07, 0x8e, 0xbd,
  0x13, 0x58, 0xd0, 0xbc, 0x7d, 0xac, 0x97, 0x3d, 0x05, 0xcb, 0xc5, 0x3d,
  0x63, 0x2c, 0xbe, 0x3d, 0xa8, 0x5d, 0xdc, 0x3c, 0xcf, 0x10, 0x60, 0xbd,
  0x38, 0xb3, 0xb1, 0x3d, 0xc3, 0x95, 0xde, 0x3c, 0x6e, 0xc6, 0x24, 0xbd,
  0x45, 0x83, 0x7e, 0x3b, 0x53, 0xb0, 0x94, 0x3d, 0xf9, 0x7f, 0x94, 0x3d,
  0x24, 0xc8, 0xc7, 0x3b, 0xb3, 0xb2, 0x8c, 0x3c, 0x92, 0x1f, 0x3e, 0xbc,
  0x72, 0x96, 0xed, 0xbb, 0x34, 0x86, 0x3a, 0x3d, 0x7c, 0x8d, 0x3e, 0x3d,
  0x98, 0x17, 0xf5, 0xbc, 0xe3, 0x4c, 0xa3, 0xbd, 0xd8, 0x2d, 0x5d, 0xbd,
  0x3b, 0x8f, 0x70, 0x3d, 0xec, 0xa9, 0x80, 0x3c, 0xae, 0xc2, 0x16, 0x3c,
  0x83, 0x0d, 0x90, 0x3d, 0xc7, 0x45, 0x07, 0xbd, 0xeb, 0x22, 0x1a, 0x3d,
  0x46, 0x87, 0x52, 0x3d, 0x5d, 0x5e, 0x20, 0x3d, 0x15, 0xf6, 0xa7, 0x3d,
  0xf4, 0x79, 0x97, 0xbd, 0x2f, 0x55, 0x4c, 0x3d, 0x68, 0x2b, 0x7c, 0xbd,
  0x16, 0xd4, 0x96, 0xbc, 0x43, 0x35, 0x7c, 0x3c, 0xc2, 0x79, 0xc4, 0xbd,
  0xac, 0xd9, 0x9e, 0xbd, 0x8f, 0x6c, 0xaf, 0x3d, 0x45, 0xe9, 0x8c, 0x3d,
  0xf4, 0x96, 0xbe, 0xbb, 0xc4, 0xc4, 0xcb, 0xbc, 0x14, 0x5c, 0x1d, 0x3a,
  0xbe, 0x9f, 0x1c, 0xbd, 0xf9, 0xdf, 0xae, 0x3c, 0x9e, 0x9c, 0xb0, 0xbc,
  0xc9, 0xe6, 0xe5, 0x3c, 0x79, 0x16, 0x10, 0xbd, 0x01, 0x3d, 0xa5, 0x3d,
  0xdc, 0x6d, 0x82, 0xbd, 0xcc, 0xd7, 0x06, 0x3d, 0x86, 0x11, 0x21, 0x3c,
  0xcd, 0xe8, 0x48, 0xbd, 0x56, 0x6a, 0x6a, 0x3c, 0xac, 0xe4, 0x85, 0x3d,
  0x88, 0xb0, 0x6f, 0xbb, 0xa0, 0xd6, 0x9d, 0x3d, 0x79, 0x24, 0x85, 0xbd,
  0x88, 0x2d, 0x66, 0xbb, 0xd0, 0x9a, 0x78, 0xbd, 0xb6, 0xa2, 0xde, 0x3c,
  0x28, 0xca, 0x87, 0xbd, 0x27, 0xc0, 0xab, 0x3c, 0x7e, 0x8d, 0x72, 0x3d,
  0x61, 0xb0, 0xc5, 0xbc, 0xac, 0x69, 0x97, 0x3d, 0xe6, 0xf3, 0xa0, 0x3d,
  0x8e, 0x1a, 0x83, 0xbd, 0xb2, 0x47, 0x22, 0x3d, 0x0c, 0x82, 0xad, 0xba,
  0xad, 0x8d, 0x9b, 0xbd, 0x99, 0x9c, 0xf9, 0xbb, 0xdb, 0x57, 0x2a, 0x3d,
  0x7d, 0xd0, 0xa8, 0xbd, 0xff, 0x6e, 0x38, 0x3c, 0x6a, 0xa9, 0x79, 0x3c,
  0xb3, 0x77, 0x41, 0x3d, 0x31, 0x87, 0xa9, 0x3b, 0xba, 0xf3, 0xdd, 0xba,
  0x21, 0xa2, 0x20, 0x3c, 0xd7, 0x8e, 0xfa, 0xbc, 0xc1, 0x41, 0x9f, 0xbc,
  0x2e, 0x9a, 0x8c, 0x3c, 0x73, 0x69, 0xa1, 0x3d, 0x65, 0x67, 0xaa, 0xbd,
  0xf0, 0xef, 0xb8, 0x3d, 0x76, 0x12, 0x68, 0xbd, 0x82, 0xc2, 0x50, 0x3d,
  0x50, 0xd3, 0xab, 0x3c, 0xa2, 0x9b, 0x43, 0x3d, 0xdc, 0x4f, 0x3c, 0xbd,
  0x1a, 0x85, 0xac, 0xbd, 0x29, 0x3a, 0x59, 0xbc, 0xb7, 0x65, 0x65, 0xbd,
  0x7d, 0xb5, 0x7e, 0x3d, 0xbc, 0xc8, 0x62, 0x3c, 0xe0, 0xbe, 0x41, 0x3d,
  0xbc, 0x78, 0x3c, 0xbd, 0x65, 0x79, 0x97, 0x3d, 0xed, 0xd5, 0x1e, 0x3c,
  0xf2, 0xc0, 0x23, 0x3d, 0x79, 0x3a, 0x06, 0xbb, 0x06, 0x36, 0x3f, 0xbc,
  0x2a, 0xb0, 0x26, 0x3c, 0xd7, 0xe7, 0xd1, 0xbd, 0x6d, 0xd4, 0x1d, 0x3d,
  0xdd, 0x7a, 0x4f, 0x3d, 0xc3, 0xb4, 0x2f, 0xbd, 0xe5, 0xef, 0xb8, 0xbd,
  0xaa, 0xcd, 0x20, 0x3d, 0x82, 0xdd, 0x4f, 0x3d, 0xab, 0x2c, 0x1c, 0xbd,
  0xaa, 0x91, 0xbd, 0x3d, 0xf9, 0x0e, 0x8b, 0x3d, 0xd1, 0x6a, 0x7b, 0xbd,
  0x1b, 0x2f, 0xf6, 0xbc, 0xd0, 0x9e, 0x00, 0xbc, 0xaf, 0x22, 0x3e, 0x3d,
  0x11, 0xab, 0x99, 0xbd, 0x11, 0xf5, 0xc3, 0x3d, 0xe1, 0xe9, 0xa7, 0xbc,
  0x86, 0x5e, 0x06, 0xbd, 0xbe, 0x7d, 0xbb, 0xbd, 0x47, 0x67, 0x2c, 0x3d,
  0x52, 0x37, 0x7a, 0x3d, 0x92, 0x1b, 0x6c, 0xbd, 0xd3, 0x83, 0xba, 0x3d,
  0x95, 0xc4, 0xa3, 0xbd, 0x7f, 0xda, 0x48, 0xbd, 0xb6, 0xbc, 0xe5, 0x3a,
  0x79, 0x36, 0xb4, 0x3d, 0x53, 0x7e, 0x30, 0xbd, 0xf7, 0xf8, 0xe3, 0x3c,
  0xfb, 0x17, 0xec, 0x3c, 0x5e, 0x66, 0x2a, 0xbc, 0xfb, 0x48, 0x00, 0x3b,
  0xde, 0x61, 0x50, 0xbc, 0xe7, 0x15, 0xab, 0xbc, 0x57, 0x24, 0x56, 0x3b,
  0x94, 0x56, 0xdb, 0x3b, 0x1c, 0xd8, 0x38, 0x3d, 0x16, 0x59, 0xae, 0xbd,
  0x40, 0xb9, 0x25, 0x3d, 0x78, 0x0d, 0xc7, 0xbd, 0x26, 0x76, 0x9f, 0x3b,
  0x48, 0xad, 0x81, 0xbd, 0x48, 0x32, 0x61, 0x3d, 0x76, 0x6b, 0xca, 0xbd,
  0x80, 0xbc, 0x88, 0xbc, 0x6a, 0xa6, 0x1a, 0xbd, 0xb8, 0xe7, 0x70, 0xbd,
  0xc1, 0xc9, 0xc3, 0x3d, 0x49, 0x5e, 0x47, 0xbd, 0x4c, 0x82, 0xae, 0x3d,
  0x04, 0x5e, 0x3e, 0x3d, 0x03, 0x29, 0x1c, 0xbd, 0xd0, 0xc2, 0x01, 0x3d,
  0x85, 0xf2, 0x3c, 0x3d, 0xe2, 0x2e, 0x67, 0xbd, 0x50, 0xd0, 0xfd, 0x3c,
  0xdc, 0x88, 0x62, 0xbd, 0xbe, 0x72, 0x55, 0x3b, 0xcb, 0x15, 0x07, 0x3d,
  0x1c, 0x42, 0x54, 0xbd, 0x00, 0x4c, 0x01, 0xbd, 0xe4, 0x02, 0xb3, 0x3d,
  0x07, 0xa5, 0x79, 0x3d, 0xbe, 0x40, 0xa2, 0xbb, 0x58, 0x3f, 0x97, 0xbd,
  0x47, 0x79, 0x05, 0xbd, 0xc4, 0xfe, 0xc3, 0xbc, 0xb7, 0x2a, 0x83, 0x3d,
  0x46, 0x3a, 0x62, 0x3d, 0x07, 0x0f, 0x26, 0x3d, 0xa4, 0x1a, 0x34, 0x3b,
  0xe9, 0x39, 0x6e, 0x3d, 0x1a, 0xf2, 0xa9, 0x3d, 0xa8, 0x3a, 0x3d, 0xbd,
  0x2d, 0x2c, 0x9b, 0x3d, 0x6b, 0x09, 0xeb, 0xbb, 0x03, 0x97, 0x04, 0xbc,
  0x34, 0x98, 0xc9, 0xbd, 0x63, 0xf9, 0x30, 0xbb, 0xd2, 0x6d, 0x08, 0x3d,
  0x90, 0x46, 0xbd, 0x3d, 0x4d, 0x54, 0x82, 0x3d, 0x38, 0x04, 0x8f, 0xbc,
  0xe2, 0x62, 0x7d, 0xbd, 0xe2, 0xca, 0xae, 0x3d, 0x12, 0xe1, 0x54, 0x3d,
  0xf4, 0xed, 0x9c, 0xbc, 0xd2, 0x1b, 0xd2, 0xbc, 0xc6, 0x29, 0xcf, 0xbc,
  0x54, 0x41, 0xab, 0xbd, 0x87, 0x4a, 0xe4, 0x3c, 0x40, 0x0a, 0x80, 0xbd,
  0x02, 0x63, 0xba, 0xbd, 0xd5, 0xf0, 0xb9, 0x3c, 0xd2, 0x51, 0xac, 0xbd,
  0x68, 0xd3, 0x03, 0x3c, 0xb8, 0xba, 0xd7, 0x3c, 0xe1, 0xef, 0x39, 0xbd,
  0xe1, 0x69, 0xaf, 0xbd, 0xe7, 0xaa, 0x93, 0xbd, 0x10, 0xdf, 0x6c, 0xbd,
  0x9d, 0xc1, 0x8d, 0x3d, 0x24, 0xba, 0x93, 0x3d, 0x8c, 0x63, 0x2e, 0x3c,
  0x2b, 0x9e, 0x0b, 0xbd, 0x51, 0xc6, 0xa7, 0xbd, 0xb2, 0x46, 0x97, 0x3d,
  0xbd, 0x0e, 0xb0, 0xbd, 0x18, 0x65, 0x6c, 0x3c, 0x90, 0x68, 0x3e, 0xbc,
  0x3e, 0x2e, 0xb5, 0x3c, 0xde, 0xe2, 0x5b, 0x3d, 0x8c, 0x44, 0x57, 0xbc,
  0xf4, 0x29, 0x7f, 0x3a, 0xc3, 0x49, 0x2a, 0xbd, 0x91, 0x4c, 0x1e, 0xbd,
  0x08, 0x0b, 0x9a, 0x3d, 0xdc, 0x3c, 0x23, 0x3c, 0x14, 0x03, 0x8d, 0x3d,
  0xa8, 0x8a, 0xe0, 0x3c, 0xc9, 0x94, 0xc1, 0xbc, 0xbe, 0xc0, 0xe8, 0xbc,
  0x16, 0xcd, 0x68, 0xbd, 0x9b, 0x77, 0x38, 0xbd, 0x71, 0x8e, 0x61, 0xbd,
  0x7e, 0xc4, 0xa7, 0xbb, 0xa0, 0xb6, 0x9a, 0x3d, 0x21, 0xf2, 0x95, 0xbd,
  0xed, 0xd7, 0x9f, 0x3d, 0xb1, 0xed, 0xb7, 0x3d, 0xed, 0xc8, 0x84, 0xbd,
  0x06, 0x92, 0x93, 0xbd, 0x2f, 0xb4, 0x4d, 0x3c, 0x9b, 0xdf, 0x82, 0x3d,
  0xdf, 0x56, 0xb8, 0x3d, 0x1b, 0x5c, 0x99, 0xbd, 0x65, 0xb8, 0x72, 0xbd,
  0x79, 0x6f, 0x56, 0x3d, 0x31, 0x9b, 0xd5, 0x3c, 0x96, 0x34, 0x92, 0x3c,
  0x2b, 0x86, 0x3b, 0x3d, 0xbf, 0x7e, 0x89, 0xbc, 0x69, 0xfa, 0xb3, 0xbd,
  0x1b, 0x67, 0xc2, 0x3d, 0x70, 0x68, 0xd2, 0xbc, 0xc2, 0x42, 0x72, 0x3c,
  0x6a, 0xd0, 0xaa, 0x3c, 0xc8, 0x19, 0x76, 0xbc, 0xee, 0x72, 0x99, 0x3d,
  0xfe, 0x3f, 0x13, 0x3d, 0xd9, 0xe7, 0xbf, 0x3c, 0x1f, 0x6a, 0x49, 0x3d,
  0xb7, 0x7f, 0x88, 0xbd, 0x9a, 0x4a, 0x6d, 0xbd, 0x92, 0x6b, 0x4f, 0x3d,
  0xaa, 0xaf, 0x21, 0xbd, 0x70, 0x9a, 0xbe, 0xbd, 0x5e, 0x61, 0x6f, 0xbc,
  0x5a, 0xb8, 0xc4, 0xbd, 0x45, 0x6b, 0x04, 0xbd, 0x0b, 0x1f, 0x5b, 0x3d,
  0xc2, 0x2b, 0x83, 0xbd, 0x1a, 0xac, 0x24, 0xbc, 0x7f, 0xf7, 0x4e, 0x3c,
  0x02, 0x5f, 0xbf, 0x3d, 0x23, 0xba, 0x81, 0x3d, 0xb7, 0x3f, 0x9e, 0x3d,
  0xf6, 0x6b, 0x91, 0xbd, 0xef, 0x56, 0x8c, 0xbb, 0xbd, 0xc0, 0xb3, 0x3d,
  0xf7, 0x83, 0x0f, 0xbd, 0x23, 0x18, 0xa5, 0x3d, 0x5c, 0xb4, 0x5e, 0xbc,
  0xc9, 0x41, 0xc7, 0xbd, 0x8b, 0x1f, 0x3b, 0xbd, 0xc5, 0xfb, 0x30, 0xbb,
  0x45, 0x14, 0x37, 0x3d, 0xcd, 0x35, 0xd9, 0x3c, 0xeb, 0x5e, 0x46, 0xbd,
  0xff, 0x18, 0xc6, 0xbd, 0x16, 0xa0, 0x2f, 0xbd, 0x84, 0x0f, 0x10, 0xbd,
  0xa9, 0xc0, 0x1d, 0x3d, 0x20, 0xd5, 0xb9, 0xbd, 0xb7, 0xf5, 0x6d, 0xbd,
  0xf0, 0x23, 0x1e, 0xb9, 0x18, 0x53, 0x44, 0xbc, 0x2c, 0xc5, 0xc0, 0x3d,
  0x58, 0x08, 0x2f, 0xbd, 0x71, 0xd0, 0x0d, 0xbd, 0x17, 0x6f, 0x61, 0xbd,
  0x51, 0x39, 0xc6, 0xbd, 0x64, 0x6f, 0x70, 0x3d, 0x55, 0x91, 0xeb, 0xbc,
  0xb6, 0x98, 0x93, 0x3c, 0x62, 0xff, 0x10, 0xbd, 0x8b, 0xe8, 0xb6, 0xbc,
  0x72, 0x63, 0x91, 0xbc, 0x90, 0xcb, 0x31, 0x3c, 0x51, 0x92, 0x7d, 0xbd,
  0xcd, 0x7a, 0x7e, 0x3d, 0xb7, 0xbc, 0xcf, 0xbd, 0xd8, 0xe1, 0xa9, 0xbd,
  0x3b, 0x2b, 0x92, 0xbc, 0xa1, 0xf0, 0x44, 0x3d, 0x86, 0x16, 0x6c, 0xbc,
  0xc3, 0xb5, 0xbf, 0xbd, 0x31, 0x45, 0x72, 0x3d, 0xb6, 0x69, 0x61, 0x3d,
  0xd2, 0x48, 0xaa, 0x3d, 0x0e, 0x4e, 0x58, 0xbd, 0x07, 0x70, 0x46, 0x3d,
  0xa8, 0x7c, 0x0f, 0x3d, 0x43, 0xd9, 0xa0, 0x3d, 0x36, 0x7e, 0xda, 0xbc,
  0x5d, 0xc9, 0x38, 0x3b, 0x78, 0x4b, 0x9a, 0xbd, 0xf6, 0xdd, 0xa1, 0x3d,
  0xfa, 0xf7, 0xa8, 0x3d, 0x89, 0xd3, 0x97, 0x3d, 0x9a, 0xf3, 0xa1, 0x3c,
  0x32, 0x00, 0x9e, 0xbb, 0xb2, 0x02, 0xf8, 0xbb, 0x4e, 0x99, 0xaf, 0xbd,
  0xc4, 0x1e, 0xbb, 0xbc, 0xe9, 0xb0, 0xb3, 0xbc, 0x3b, 0x43, 0xa7, 0x3d,
  0xb3, 0x79, 0xb3, 0xbd, 0x75, 0x20, 0x80, 0xbd, 0x77, 0x49, 0xa9, 0x3c,
  0x84, 0x98, 0xa6, 0xbd, 0x0e, 0x04, 0x13, 0xbd, 0x82, 0x40, 0x0c, 0xbd,
  0x7f, 0xee, 0x5e, 0xbc, 0x4d, 0xab, 0x5a, 0x3d, 0xbc, 0x3a, 0x32, 0x3d,
  0x67, 0x8a, 0xd7, 0xbc, 0xd1, 0xe8, 0xb9, 0xbd, 0x43, 0x06, 0x92, 0x3b,
  0xe6, 0xdb, 0x4d, 0x3d, 0xfe, 0xc3, 0xae, 0x3d, 0x4e, 0x02, 0x9f, 0xbc,
  0xd0, 0x2b, 0x6b, 0x3c, 0x84, 0x23, 0xf1, 0x3c, 0x2c, 0x25, 0x3f, 0x3d,
  0x1a, 0x36, 0x89, 0x3c, 0xb8, 0xfe, 0x86, 0xb9, 0xc7, 0x6d, 0xe1, 0xbc,
  0xd6, 0xa7, 0xba, 0x3a, 0x60, 0x24, 0x90, 0xbd, 0xce, 0x5b, 0xa0, 0xba,
  0xee, 0x09, 0x05, 0x3d, 0x3c, 0x67, 0x71, 0x3d, 0xd9, 0x5e, 0x8a, 0xbd,
  0x49, 0x37, 0xc3, 0xbd, 0x63, 0xd9, 0xac, 0xbd, 0x03, 0x50, 0xe7, 0x3c,
  0x53, 0x14, 0xcd, 0xbd, 0xca, 0xd5, 0x20, 0xbd, 0xa0, 0x11, 0x68, 0xba,
  0x00, 0x02, 0xa0, 0xbc, 0xde, 0xb2, 0xae, 0xbd, 0xb3, 0x45, 0x8d, 0x3d,
  0x92, 0xbb, 0xb4, 0x3d, 0xba, 0x58, 0x1b, 0x3d, 0x1c, 0xbc, 0x8d, 0x3d,
  0x26, 0x0d, 0x16, 0xbd, 0x9a, 0x8d, 0x24, 0xbd, 0x5f, 0x99, 0x95, 0xbc,
  0xf5, 0x00, 0x95, 0x3d, 0x5b, 0xcf, 0x39, 0xbb, 0x28, 0x7b, 0x90, 0xbc,
  0x06, 0x33, 0x5e, 0xbc, 0x3c, 0x1b, 0x08, 0x3d, 0x75, 0x30, 0x98, 0xbb,
  0x94, 0x48, 0xd2, 0xbc, 0x56, 0xf1, 0x24, 0xbd, 0x86, 0xcc, 0x83, 0x3d,
  0xd2, 0x28, 0x8c, 0x3d, 0x01, 0x6c, 0xcc, 0xbd, 0x0b, 0x1d, 0xaf, 0xbd,
  0xc2, 0x99, 0x97, 0xbb, 0xbf, 0xc6, 0xad, 0xbd, 0xfe, 0xdb, 0xa6, 0xbb,
  0x63, 0x48, 0x97, 0xbd, 0x15, 0x39, 0x02, 0x3c, 0xa9, 0xd1, 0xbd, 0x3d,
  0xe2, 0xfe, 0xff, 0xff, 0x04, 0x00, 0x00, 0x00, 0x10, 0x00, 0x00, 0x00,
  0xd9, 0xef, 0x4e, 0x3b, 0x00, 0x00, 0x00, 0x00, 0x00, 0x00, 0x00, 0x00,
  0x4e, 0x1e, 0x4d, 0xbb, 0xfe, 0xfe, 0xff, 0xff, 0x04, 0x00, 0x00, 0x00,
  0x04, 0x00, 0x00, 0x00, 0xb3, 0xe4, 0x4e, 0xbb, 0x0e, 0xff, 0xff, 0xff,
  0x04, 0x00, 0x00, 0x00, 0x14, 0x00, 0x00, 0x00, 0x2a, 0x92, 0x70, 0xbe,
  0x50, 0x91, 0x11, 0xbe, 0x6f, 0x74, 0x1a, 0xbf, 0x36, 0xf7, 0x34, 0xbe,
  0x7c, 0xe0, 0xc0, 0xbe, 0x2e, 0xff, 0xff, 0xff, 0x04, 0x00, 0x00, 0x00,
  0x10, 0x00, 0x00, 0x00, 0x45, 0x37, 0x89, 0xbf, 0x72, 0x12, 0x48, 0x3f,
  0x7b, 0xbe, 0x88, 0xbf, 0xf5, 0xc0, 0xcc, 0x3e, 0x4a, 0xff, 0xff, 0xff,
  0x04, 0x00, 0x00, 0x00, 0x14, 0x00, 0x00, 0x00, 0xbc, 0x3d, 0x9f, 0x3b,
  0x34, 0x68, 0x89, 0xbe, 0xc0, 0x35, 0x4e, 0x3f, 0x13, 0xd2, 0xba, 0xbe,
  0x18, 0xad, 0x77, 0x3f, 0xd4, 0xfa, 0xff, 0xff, 0xd8, 0xfa, 0xff, 0xff,
  0x0f, 0x00, 0x00, 0x00, 0x4d, 0x4c, 0x49, 0x52, 0x20, 0x43, 0x6f, 0x6e,
  0x76, 0x65, 0x72, 0x74, 0x65, 0x64, 0x2e, 0x00, 0x01, 0x00, 0x00, 0x00,
  0x14, 0x00, 0x00, 0x00, 0x00, 0x00, 0x0e, 0x00, 0x18, 0x00, 0x14, 0x00,
  0x10, 0x00, 0x0c, 0x00, 0x08, 0x00, 0x04, 0x00, 0x0e, 0x00, 0x00, 0x00,
  0x14, 0x00, 0x00, 0x00, 0x1c, 0x00, 0x00, 0x00, 0x24, 0x01, 0x00, 0x00,
  0x28, 0x01, 0x00, 0x00, 0x2c, 0x01, 0x00, 0x00, 0x04, 0x00, 0x00, 0x00,
  0x6d, 0x61, 0x69, 0x6e, 0x00, 0x00, 0x00, 0x00, 0x04, 0x00, 0x00, 0x00,
  0xcc, 0x00, 0x00, 0x00, 0x84, 0x00, 0x00, 0x00, 0x50, 0x00, 0x00, 0x00,
  0x14, 0x00, 0x00, 0x00, 0x00, 0x00, 0x0e, 0x00, 0x1a, 0x00, 0x14, 0x00,
  0x10, 0x00, 0x0c, 0x00, 0x0b, 0x00, 0x04, 0x00, 0x0e, 0x00, 0x00, 0x00,
  0x1c, 0x00, 0x00, 0x00, 0x00, 0x00, 0x00, 0x09, 0x1c, 0x00, 0x00, 0x00,
  0x20, 0x00, 0x00, 0x00, 0x01, 0x00, 0x00, 0x00, 0x00, 0x00, 0x06, 0x00,
  0x08, 0x00, 0x04, 0x00, 0x06, 0x00, 0x00, 0x00, 0x00, 0x00, 0x80, 0x3f,
  0x01, 0x00, 0x00, 0x00, 0x0a, 0x00, 0x00, 0x00, 0x01, 0x00, 0x00, 0x00,
  0x09, 0x00, 0x00, 0x00, 0x9a, 0xff, 0xff, 0xff, 0x10, 0x00, 0x00, 0x00,
  0x00, 0x00, 0x00, 0x08, 0x0c, 0x00, 0x00, 0x00, 0x10, 0x00, 0x00, 0x00,
  0x9c, 0xfb, 0xff, 0xff, 0x01, 0x00, 0x00, 0x00, 0x09, 0x00, 0x00, 0x00,
  0x03, 0x00, 0x00, 0x00, 0x08, 0x00, 0x00, 0x00, 0x01, 0x00, 0x00, 0x00,
  0x03, 0x00, 0x00, 0x00, 0xca, 0xff, 0xff, 0xff, 0x10, 0x00, 0x00, 0x00,
  0x00, 0x00, 0x00, 0x08, 0x10, 0x00, 0x00, 0x00, 0x14, 0x00, 0x00, 0x00,
  0xba, 0xff, 0xff, 0xff, 0x00, 0x00, 0x00, 0x01, 0x01, 0x00, 0x00, 0x00,
  0x08, 0x00, 0x00, 0x00, 0x03, 0x00, 0x00, 0x00, 0x07, 0x00, 0x00, 0x00,
  0x02, 0x00, 0x00, 0x00, 0x04, 0x00, 0x00, 0x00, 0x00, 0x00, 0x0e, 0x00,
  0x16, 0x00, 0x00, 0x00, 0x10, 0x00, 0x0c, 0x00, 0x0b, 0x00, 0x04, 0x00,
  0x0e, 0x00, 0x00, 0x00, 0x18, 0x00, 0x00, 0x00, 0x00, 0x00, 0x00, 0x08,
  0x18, 0x00, 0x00, 0x00, 0x1c, 0x00, 0x00, 0x00, 0x00, 0x00, 0x06, 0x00,
  0x08, 0x00, 0x07, 0x00, 0x06, 0x00, 0x00, 0x00, 0x00, 0x00, 0x00, 0x01,
  0x01, 0x00, 0x00, 0x00, 0x07, 0x00, 0x00, 0x00, 0x03, 0x00, 0x00, 0x00,
  0x00, 0x00, 0x00, 0x00, 0x06, 0x00, 0x00, 0x00, 0x05, 0x00, 0x00, 0x00,
  0x01, 0x00, 0x00, 0x00, 0x0a, 0x00, 0x00, 0x00, 0x01, 0x00, 0x00, 0x00,
  0x00, 0x00, 0x00, 0x00, 0x0b, 0x00, 0x00, 0x00, 0x9c, 0x03, 0x00, 0x00,
  0x44, 0x03, 0x00, 0x00, 0x04, 0x03, 0x00, 0x00, 0xc8, 0x02, 0x00, 0x00,
  0x70, 0x02, 0x00, 0x00, 0x18, 0x02, 0x00, 0x00, 0xcc, 0x01, 0x00, 0x00,
  0x48, 0x01, 0x00, 0x00, 0xc0, 0x00, 0x00, 0x00, 0x50, 0x00, 0x00, 0x00,
  0x04, 0x00, 0x00, 0x00, 0xa6, 0xfc, 0xff, 0xff, 0x00, 0x00, 0x00, 0x01,
  0x10, 0x00, 0x00, 0x00, 0x10, 0x00, 0x00, 0x00, 0x0b, 0x00, 0x00, 0x00,
  0x28, 0x00, 0x00, 0x00, 0x90, 0xfc, 0xff, 0xff, 0x1b, 0x00, 0x00, 0x00,
  0x53, 0x74, 0x61, 0x74, 0x65, 0x66, 0x75, 0x6c, 0x50, 0x61, 0x72, 0x74,
  0x69, 0x74, 0x69, 0x6f, 0x6e, 0x65, 0x64, 0x43, 0x61, 0x6c, 0x6c, 0x5f,
  0x31, 0x3a, 0x30, 0x00, 0x02, 0x00, 0x00, 0x00, 0x01, 0x00, 0x00, 0x00,
  0x05, 0x00, 0x00, 0x00, 0xee, 0xfc, 0xff, 0xff, 0x00, 0x00, 0x00, 0x01,
  0x10, 0x00, 0x00, 0x00, 0x10, 0x00, 0x00, 0x00, 0x0a, 0x00, 0x00, 0x00,
  0x4c, 0x00, 0x00, 0x00, 0xd8, 0xfc, 0xff, 0xff, 0x3c, 0x00, 0x00, 0x00,
  0x73, 0x65, 0x71, 0x75, 0x65, 0x6e, 0x74, 0x69, 0x61, 0x6c, 0x5f, 0x31,
  0x2f, 0x64, 0x65, 0x6e, 0x73, 0x65, 0x5f, 0x32, 0x5f, 0x31, 0x2f, 0x4d,
  0x61, 0x74, 0x4d, 0x75, 0x6c, 0x3b, 0x73, 0x65, 0x71, 0x75, 0x65, 0x6e,
  0x74, 0x69, 0x61, 0x6c, 0x5f, 0x31, 0x2f, 0x64, 0x65, 0x6e, 0x73, 0x65,
  0x5f, 0x32, 0x5f, 0x31, 0x2f, 0x42, 0x69, 0x61, 0x73, 0x41, 0x64, 0x64,
  0x00, 0x00, 0x00, 0x00, 0x02, 0x00, 0x00, 0x00, 0x01, 0x00, 0x00, 0x00,
  0x05, 0x00, 0x00, 0x00, 0x5a, 0xfd, 0xff, 0xff, 0x00, 0x00, 0x00, 0x01,
  0x10, 0x00, 0x00, 0x00, 0x10, 0x00, 0x00, 0x00, 0x09, 0x00, 0x00, 0x00,
  0x64, 0x00, 0x00, 0x00, 0x44, 0xfd, 0xff, 0xff, 0x54, 0x00, 0x00, 0x00,
  0x73, 0x65, 0x71, 0x75, 0x65, 0x6e, 0x74, 0x69, 0x61, 0x6c, 0x5f, 0x31,
  0x2f, 0x64, 0x65, 0x6e, 0x73, 0x65, 0x5f, 0x31, 0x5f, 0x32, 0x2f, 0x4d,
  0x61, 0x74, 0x4d, 0x75, 0x6c, 0x3b, 0x73, 0x65, 0x71, 0x75, 0x65, 0x6e,
  0x74, 0x69, 0x61, 0x6c, 0x5f, 0x31, 0x2f, 0x64, 0x65, 0x6e, 0x73, 0x65,
  0x5f, 0x31, 0x5f, 0x32, 0x2f, 0x52, 0x65, 0x6c, 0x75, 0x3b, 0x73, 0x65,
  0x71, 0x75, 0x65, 0x6e, 0x74, 0x69, 0x61, 0x6c, 0x5f, 0x31, 0x2f, 0x64,
  0x65, 0x6e, 0x73, 0x65, 0x5f, 0x31, 0x5f, 0x32, 0x2f, 0x41, 0x64, 0x64,
  0x00, 0x00, 0x00, 0x00, 0x02, 0x00, 0x00, 0x00, 0x01, 0x00, 0x00, 0x00,
  0x01, 0x00, 0x00, 0x00, 0xde, 0xfd, 0xff, 0xff, 0x00, 0x00, 0x00, 0x01,
  0x10, 0x00, 0x00, 0x00, 0x10, 0x00, 0x00, 0x00, 0x08, 0x00, 0x00, 0x00,
  0x60, 0x00, 0x00, 0x00, 0xc8, 0xfd, 0xff, 0xff, 0x52, 0x00, 0x00, 0x00,
  0x73, 0x65, 0x71, 0x75, 0x65, 0x6e, 0x74, 0x69, 0x61, 0x6c, 0x5f, 0x31,
  0x2f, 0x64, 0x65, 0x6e, 0x73, 0x65, 0x5f, 0x31, 0x2f, 0x4d, 0x61, 0x74,
  0x4d, 0x75, 0x6c, 0x3b, 0x73, 0x65, 0x71, 0x75, 0x65, 0x6e, 0x74, 0x69,
  0x61, 0x6c, 0x5f, 0x31, 0x2f, 0x64, 0x65, 0x6e, 0x73, 0x65, 0x5f, 0x31,
  0x2f, 0x52, 0x65, 0x6c, 0x75, 0x3b, 0x73, 0x65, 0x71, 0x75, 0x65, 0x6e,
  0x74, 0x69, 0x61, 0x6c, 0x5f, 0x31, 0x2f, 0x64, 0x65, 0x6e, 0x73, 0x65,
  0x5f, 0x31, 0x2f, 0x42, 0x69, 0x61, 0x73, 0x41, 0x64, 0x64, 0x00, 0x00,
  0x02, 0x00, 0x00, 0x00, 0x01, 0x00, 0x00, 0x00, 0x04, 0x00, 0x00, 0x00,
  0x5e, 0xfe, 0xff, 0xff, 0x00, 0x00, 0x00, 0x01, 0x10, 0x00, 0x00, 0x00,
  0x10, 0x00, 0x00, 0x00, 0x07, 0x00, 0x00, 0x00, 0x28, 0x00, 0x00, 0x00,
  0x48, 0xfe, 0xff, 0xff, 0x1b, 0x00, 0x00, 0x00, 0x73, 0x65, 0x71, 0x75,
  0x65, 0x6e, 0x74, 0x69, 0x61, 0x6c, 0x5f, 0x31, 0x2f, 0x64, 0x65, 0x6e,
  0x73, 0x65, 0x5f, 0x31, 0x2f, 0x4d, 0x61, 0x74, 0x4d, 0x75, 0x6c, 0x00,
  0x02, 0x00, 0x00, 0x00, 0x04, 0x00, 0x00, 0x00, 0x58, 0x02, 0x00, 0x00,
  0xa6, 0xfe, 0xff, 0xff, 0x00, 0x00, 0x00, 0x01, 0x10, 0x00, 0x00, 0x00,
  0x10, 0x00, 0x00, 0x00, 0x06, 0x00, 0x00, 0x00, 0x38, 0x00, 0x00, 0x00,
  0x90, 0xfe, 0xff, 0xff, 0x2b, 0x00, 0x00, 0x00, 0x73, 0x65, 0x71, 0x75,
  0x65, 0x6e, 0x74, 0x69, 0x61, 0x6c, 0x5f, 0x31, 0x2f, 0x64, 0x65, 0x6e,
  0x73, 0x65, 0x5f, 0x31, 0x2f, 0x42, 0x69, 0x61, 0x73, 0x41, 0x64, 0x64,
  0x2f, 0x52, 0x65, 0x61, 0x64, 0x56, 0x61, 0x72, 0x69, 0x61, 0x62, 0x6c,
  0x65, 0x4f, 0x70, 0x00, 0x01, 0x00, 0x00, 0x00, 0x04, 0x00, 0x00, 0x00,
  0xfa, 0xfe, 0xff, 0xff, 0x00, 0x00, 0x00, 0x01, 0x10, 0x00, 0x00, 0x00,
  0x10, 0x00, 0x00, 0x00, 0x05, 0x00, 0x00, 0x00, 0x38, 0x00, 0x00, 0x00,
  0xe4, 0xfe, 0xff, 0xff, 0x29, 0x00, 0x00, 0x00, 0x73, 0x65, 0x71, 0x75,
  0x65, 0x6e, 0x74, 0x69, 0x61, 0x6c, 0x5f, 0x31, 0x2f, 0x64, 0x65, 0x6e,
  0x73, 0x65, 0x5f, 0x31, 0x5f, 0x32, 0x2f, 0x41, 0x64, 0x64, 0x2f, 0x52,
  0x65, 0x61, 0x64, 0x56, 0x61, 0x72, 0x69, 0x61, 0x62, 0x6c, 0x65, 0x4f,
  0x70, 0x00, 0x00, 0x00, 0x01, 0x00, 0x00, 0x00, 0x01, 0x00, 0x00, 0x00,
  0x4e, 0xff, 0xff, 0xff, 0x00, 0x00, 0x00, 0x01, 0x10, 0x00, 0x00, 0x00,
  0x10, 0x00, 0x00, 0x00, 0x04, 0x00, 0x00, 0x00, 0x1c, 0x00, 0x00, 0x00,
  0x38, 0xff, 0xff, 0xff, 0x0f, 0x00, 0x00, 0x00, 0x61, 0x72, 0x69, 0x74,
  0x68, 0x2e, 0x63, 0x6f, 0x6e, 0x73, 0x74, 0x61, 0x6e, 0x74, 0x32, 0x00,
  0x01, 0x00, 0x00, 0x00, 0x05, 0x00, 0x00, 0x00, 0x86, 0xff, 0xff, 0xff,
  0x00, 0x00, 0x00, 0x01, 0x10, 0x00, 0x00, 0x00, 0x10, 0x00, 0x00, 0x00,
  0x03, 0x00, 0x00, 0x00, 0x1c, 0x00, 0x00, 0x00, 0x70, 0xff, 0xff, 0xff,
  0x0f, 0x00, 0x00, 0x00, 0x61, 0x72, 0x69, 0x74, 0x68, 0x2e, 0x63, 0x6f,
  0x6e, 0x73, 0x74, 0x61, 0x6e, 0x74, 0x31, 0x00, 0x02, 0x00, 0x00, 0x00,
  0x01, 0x00, 0x00, 0x00, 0x04, 0x00, 0x00, 0x00, 0xc2, 0xff, 0xff, 0xff,
  0x00, 0x00, 0x00, 0x01, 0x10, 0x00, 0x00, 0x00, 0x10, 0x00, 0x00, 0x00,
  0x02, 0x00, 0x00, 0x00, 0x1c, 0x00, 0x00, 0x00, 0xac, 0xff, 0xff, 0xff,
  0x0e, 0x00, 0x00, 0x00, 0x61, 0x72, 0x69, 0x74, 0x68, 0x2e, 0x63, 0x6f,
  0x6e, 0x73, 0x74, 0x61, 0x6e, 0x74, 0x00, 0x00, 0x02, 0x00, 0x00, 0x00,
  0x05, 0x00, 0x00, 0x00, 0x01, 0x00, 0x00, 0x00, 0x00, 0x00, 0x16, 0x00,
  0x18, 0x00, 0x14, 0x00, 0x00, 0x00, 0x10, 0x00, 0x0c, 0x00, 0x08, 0x00,
  0x00, 0x00, 0x00, 0x00, 0x00, 0x00, 0x07, 0x00, 0x16, 0x00, 0x00, 0x00,
  0x00, 0x00, 0x00, 0x01, 0x14, 0x00, 0x00, 0x00, 0x14, 0x00, 0x00, 0x00,
  0x01, 0x00, 0x00, 0x00, 0x30, 0x00, 0x00, 0x00, 0x04, 0x00, 0x04, 0x00,
  0x04, 0x00, 0x00, 0x00, 0x1e, 0x00, 0x00, 0x00, 0x73, 0x65, 0x72, 0x76,
  0x69, 0x6e, 0x67, 0x5f, 0x64, 0x65, 0x66, 0x61, 0x75, 0x6c, 0x74, 0x5f,
  0x6b, 0x65, 0x72, 0x61, 0x73, 0x5f, 0x74, 0x65, 0x6e, 0x73, 0x6f, 0x72,
  0x3a, 0x30, 0x00, 0x00, 0x02, 0x00, 0x00, 0x00, 0x01, 0x00, 0x00, 0x00,
  0x58, 0x02, 0x00, 0x00, 0x02, 0x00, 0x00, 0x00, 0x20, 0x00, 0x00, 0x00,
  0x04, 0x00, 0x00, 0x00, 0xf4, 0xff, 0xff, 0xff, 0x19, 0x00, 0x00, 0x00,
  0x00, 0x00, 0x00, 0x19, 0x0c, 0x00, 0x0c, 0x00, 0x0b, 0x00, 0x00, 0x00,
  0x00, 0x00, 0x04, 0x00, 0x0c, 0x00, 0x00, 0x00, 0x09, 0x00, 0x00, 0x00,
  0x00, 0x00, 0x00, 0x09
};
